00000000 ffffb8d6
00000001 ffffd806
00000002 00001665
00000003 ffffde46
00000004 fffff235
00000005 ffffe9b1
00000006 ffffeb68
00000007 00001b23
00000008 fffff449
00000009 00001284
0000000a 00001925
0000000b ffffe14a
0000000c 0000154f
0000000d ffffe499
0000000e 0000192a
0000000f 000008c7
00000010 ffffdc9f
00000011 ffffc835
00000012 ffffdc9b
00000013 000006f1
00000014 fffff257
00000015 00002d17
00000016 00000565
00000017 0000351c
00000018 ffffd646
00000019 fffffcba
0000001a 00001812
0000001b ffffd957
0000001c 00001dde
0000001d 0000201b
0000001e ffffef83
0000001f 0000195b
00000020 ffffbed6
00000021 ffffd467
00000022 ffffd88a
00000023 ffffd0e7
00000024 00001707
00000025 000006b8
00000026 ffffd446
00000027 00004a73
00000028 00000fc9
00000029 00000402
0000002a 00003486
0000002b ffffb107
0000002c ffffeba6
0000002d ffffc682
0000002e 00002bce
0000002f 000031d1
00000030 ffffb118
00000031 000024ce
00000032 ffffe72a
00000033 ffffe5b3
00000034 00001c9b
00000035 ffffede2
00000036 00004918
00000037 00001265
00000038 ffffd901
00000039 0000187f
0000003a ffffe0aa
0000003b ffffd0c0
0000003c 000013b5
0000003d ffffffb9
0000003e ffffdd54
0000003f 000036d9
00000400 000004a3
00000401 ffffd061
00000402 ffffcdf2
00000403 00000bec
00000404 ffffe458
00000405 00001022
00000406 00003268
00000407 ffffe8a1
00000408 00001547
00000409 ffffe1e7
0000040a ffffd99e
0000040b 000023d3
0000040c 00001e4b
0000040d ffffff9b
0000040e ffffce44
0000040f 000007e3
00000410 00003f36
00000411 ffffd7e7
00000412 ffffff72
00000413 000031be
00000414 000020bc
00000415 00001182
00000416 00002685
00000417 000030f5
00000418 ffffd409
00000419 00003022
0000041a 0000170c
0000041b 00003b2a
0000041c 0000280f
0000041d 000029c5
0000041e 00003774
0000041f ffffda1a
00000420 ffffc197
00000421 000037ca
00000422 000029fb
00000423 ffffe71c
00000424 000048ac
00000425 0000049c
00000426 ffffdd65
00000427 ffffc6a9
00000428 00002ea0
00000429 fffff9e2
0000042a 00002af3
0000042b ffffef31
0000042c 000013c7
0000042d ffffde6d
0000042e 00001eb3
0000042f ffffe7ad
00000430 ffffeb57
00000431 ffffdc37
00000432 00000eef
00000433 ffffec69
00000434 00001f52
00000435 fffffc24
00000436 ffffcfe0
00000437 000029f6
00000438 00001372
00000439 ffffcad9
0000043a ffffdaf3
0000043b ffffc6c4
0000043c 00001324
0000043d 0000218f
0000043e 00004230
0000043f 000031aa
00000800 00005afd
00000801 00000b35
00000802 00001050
00000803 000010d1
00000804 00002917
00000805 00000e85
00000806 00002a6f
00000807 ffffa9da
00000808 ffffe67a
00000809 00003aad
0000080a ffffff72
0000080b 00002d43
0000080c 000056e8
0000080d 0000111a
0000080e ffffd95d
0000080f ffffdf68
00000810 00001d57
00000811 ffffc383
00000812 ffffd771
00000813 ffffff0c
00000814 000035a8
00000815 ffffc822
00000816 00001953
00000817 ffffea9c
00000818 0000214d
00000819 ffffe67a
0000081a 00000fcf
0000081b 000034f1
0000081c ffffe187
0000081d fffff379
0000081e 000045ed
0000081f 00002e3b
00000820 0000275d
00000821 ffffd407
00000822 ffffaca4
00000823 00000b57
00000824 00002075
00000825 ffffe9e0
00000826 000010c9
00000827 fffff284
00000828 ffffd94c
00000829 ffffda7d
0000082a 00001aa8
0000082b fffffca8
0000082c ffffd539
0000082d ffffeaea
0000082e ffffd978
0000082f ffffd049
00000830 fffff0de
00000831 ffffd483
00000832 000021fc
00000833 00001143
00000834 ffffe389
00000835 000002df
00000836 000015a9
00000837 00000a42
00000838 00000b58
00000839 fffffcfb
0000083a ffffd0d4
0000083b 00001845
0000083c ffffeb68
0000083d ffffc716
0000083e ffffd4c2
0000083f ffffdae2
00000c00 ffffefb3
00000c01 ffffee07
00000c02 000016fe
00000c03 000014cc
00000c04 000023d8
00000c05 00003045
00000c06 ffffb608
00000c07 fffffb12
00000c08 fffff42d
00000c09 000017ed
00000c0a 00003d3d
00000c0b ffffd417
00000c0c fffff193
00000c0d ffffdfea
00000c0e ffffc154
00000c0f ffffe057
00000c10 fffff072
00000c11 fffff461
00000c12 fffff573
00000c13 00002cc3
00000c14 ffffdd4c
00000c15 ffffd919
00000c16 fffffd0a
00000c17 ffffcc4c
00000c18 0000309a
00000c19 00001f84
00000c1a 0000506a
00000c1b ffffe2c1
00000c1c fffff899
00000c1d 00002462
00000c1e ffffd2d0
00000c1f fffff892
00000c20 ffffbded
00000c21 000016e1
00000c22 ffffe796
00000c23 ffffe11e
00000c24 ffffd575
00000c25 ffffe134
00000c26 ffffbcdb
00000c27 000030d4
00000c28 ffffc1f1
00000c29 ffffe801
00000c2a fffff1f8
00000c2b 00003426
00000c2c 00000c3b
00000c2d ffffba33
00000c2e ffffe296
00000c2f ffffcb8e
00000c30 00001c34
00000c31 ffffc5e1
00000c32 ffffcded
00000c33 00000025
00000c34 ffffdc4a
00000c35 ffffb723
00000c36 000044fe
00000c37 ffffe216
00000c38 ffffc2da
00000c39 00003f63
00000c3a ffffed0d
00000c3b ffffec00
00000c3c ffffe3bf
00000c3d 00000902
00000c3e 00000008
00000c3f 00003590
00001000 00004147
00001001 00000035
00001002 ffffc6b3
00001003 ffffe4ff
00001004 00000877
00001005 00002760
00001006 ffffe34a
00001007 ffffe14f
00001008 ffffd66a
00001009 ffffcc8e
0000100a ffffc0fb
0000100b 00000fde
0000100c 00002c7a
0000100d 00001ac3
0000100e 00001ba2
0000100f 000036e1
00001010 fffffb1e
00001011 ffffe0d4
00001012 00003018
00001013 0000377d
00001014 00000a94
00001015 0000061f
00001016 ffffdda0
00001017 00002095
00001018 ffffd8d0
00001019 000013c9
0000101a 00003a05
0000101b 00001a48
0000101c 000046fc
0000101d 000013c3
0000101e 00002700
0000101f fffffa51
00001020 ffffcccc
00001021 000017bc
00001022 ffffd250
00001023 000036a2
00001024 000035f5
00001025 fffff296
00001026 fffff2ef
00001027 ffffdecd
00001028 ffffe9c2
00001029 0000211f
0000102a ffffc0aa
0000102b ffffdbdd
0000102c 000013ec
0000102d ffffbe18
0000102e fffff2b1
0000102f ffffd12b
00001030 ffffefc8
00001031 0000232a
00001032 00000fbe
00001033 00002be3
00001034 ffffe63e
00001035 000033e8
00001036 ffffc1aa
00001037 ffffed25
00001038 ffffd2ea
00001039 00000b09
0000103a 00000f64
0000103b fffff35d
0000103c ffffc839
0000103d 00000cfb
0000103e fffff0b8
0000103f 00003adf
00001400 00002a2b
00001401 00000cb5
00001402 0000191e
00001403 00003248
00001404 fffff2be
00001405 ffffc937
00001406 0000000c
00001407 fffffc4a
00001408 000001de
00001409 000031d9
0000140a ffffcdd8
0000140b ffffe3dd
0000140c ffffea4a
0000140d ffffd7f6
0000140e 00000848
0000140f ffffd797
00001410 000015a0
00001411 00000e9b
00001412 000010a6
00001413 fffff134
00001414 ffffd919
00001415 00001a89
00001416 ffffea98
00001417 00000284
00001418 ffffeeea
00001419 000017f8
0000141a ffffda69
0000141b 00001f4e
0000141c fffff9b7
0000141d 000022c5
0000141e ffffe9d3
0000141f 000018a8
00001420 00000215
00001421 00003cba
00001422 0000284f
00001423 000014da
00001424 ffffe35a
00001425 fffff0b6
00001426 0000317a
00001427 0000075c
00001428 00000402
00001429 fffffc40
0000142a 000030c2
0000142b 00000bf3
0000142c ffffe09b
0000142d ffffe013
0000142e 00002c7a
0000142f ffffeb8c
00001430 fffff931
00001431 000021f5
00001432 00001847
00001433 ffffefd6
00001434 0000116e
00001435 ffffe216
00001436 fffff493
00001437 00001e3f
00001438 000012b8
00001439 00003823
0000143a 00000306
0000143b ffffca49
0000143c ffffbf4d
0000143d 0000133f
0000143e 00002e60
0000143f 0000013e
00001800 0000459f
00001801 000014f7
00001802 000035f5
00001803 ffffec4f
00001804 ffffe8d2
00001805 0000073c
00001806 000012e1
00001807 00000618
00001808 0000289f
00001809 ffffd1d9
0000180a ffffe4f5
0000180b 00001e79
0000180c ffffd932
0000180d ffffd4fd
0000180e 00001ed0
0000180f ffffeff4
00001810 00001fdb
00001811 ffffe21e
00001812 00000b92
00001813 ffffe5a2
00001814 fffff28d
00001815 fffff54a
00001816 00000ceb
00001817 00002245
00001818 ffffc5ca
00001819 ffffdb47
0000181a ffffd5dd
0000181b 0000167e
0000181c 00003415
0000181d ffffe069
0000181e 000002b5
0000181f 00000955
00001820 ffffe59e
00001821 000012ba
00001822 00002978
00001823 0000192c
00001824 ffffd96b
00001825 00000cb5
00001826 00001515
00001827 00003927
00001828 00001bd0
00001829 0000322e
0000182a ffffe8d0
0000182b 000026c2
0000182c 00003199
0000182d 00000d7a
0000182e 000033fc
0000182f 00002e91
00001830 ffffe38e
00001831 00001cce
00001832 fffff6c9
00001833 ffffb715
00001834 00002edd
00001835 ffffc66d
00001836 ffffd57a
00001837 000045bf
00001838 00000d46
00001839 00000904
0000183a 000010f1
0000183b 00001d56
0000183c 00001a50
0000183d ffffb7a9
0000183e ffffd4bd
0000183f ffffc2c1
00001c00 ffffc95f
00001c01 ffffca18
00001c02 000023cd
00001c03 0000157b
00001c04 000029fd
00001c05 000001fb
00001c06 ffffce13
00001c07 ffffde84
00001c08 ffffe8e9
00001c09 00000c04
00001c0a 00002855
00001c0b fffffc64
00001c0c ffffd7f2
00001c0d ffffd2de
00001c0e fffffd7b
00001c0f ffffd1ed
00001c10 ffffd93f
00001c11 ffffdfdc
00001c12 00001b79
00001c13 00000916
00001c14 00000e50
00001c15 00002b3d
00001c16 ffffee94
00001c17 fffff0c2
00001c18 00001188
00001c19 000022e5
00001c1a 00002bb3
00001c1b 00002f2d
00001c1c 00002285
00001c1d 0000182a
00001c1e 00002e0e
00001c1f 00003cd7
00001c20 00001251
00001c21 ffffdf45
00001c22 ffffe7b3
00001c23 ffffcdeb
00001c24 00000cbc
00001c25 000020ee
00001c26 fffffe5b
00001c27 ffffd641
00001c28 ffffd5d2
00001c29 0000406f
00001c2a 00001223
00001c2b ffffef58
00001c2c ffffcd00
00001c2d 0000123e
00001c2e ffffcb63
00001c2f ffffe5a6
00001c30 ffffefec
00001c31 ffffddea
00001c32 0000249e
00001c33 000047fe
00001c34 000010a0
00001c35 ffffde47
00001c36 fffffb50
00001c37 fffff39f
00001c38 000004b0
00001c39 ffffec9d
00001c3a 00003586
00001c3b ffffcf44
00001c3c fffff7f5
00001c3d ffffc72a
00001c3e 00000cc0
00001c3f ffffffb8
00002000 fffff489
00002001 00001d74
00002002 00000697
00002003 00000f99
00002004 00002f1c
00002005 00001b41
00002006 00002ed4
00002007 00000a96
00002008 00001bcd
00002009 fffff83b
0000200a ffffd77b
0000200b 00003a6c
0000200c ffffd2e5
0000200d ffffd717
0000200e 00001a2c
0000200f 00000434
00002010 fffff5a7
00002011 00003f6a
00002012 ffffd395
00002013 ffffd57a
00002014 00002ad0
00002015 0000351b
00002016 ffffe05a
00002017 ffffffc9
00002018 ffffcb2d
00002019 00003ec9
0000201a 00000579
0000201b ffffd1c2
0000201c 00001e1e
0000201d fffff947
0000201e 00002701
0000201f fffffef0
00002020 ffffde60
00002021 0000139f
00002022 00002333
00002023 00000fbe
00002024 ffffd0d7
00002025 00000c4d
00002026 fffff893
00002027 00003b82
00002028 00001339
00002029 0000355d
0000202a fffff0df
0000202b fffff2ae
0000202c fffffe39
0000202d ffffc5b6
0000202e 00002057
0000202f 00000246
00002030 ffffd06c
00002031 fffff5e5
00002032 fffff62b
00002033 fffff239
00002034 00001569
00002035 fffff96d
00002036 fffffa79
00002037 fffff270
00002038 fffff5c4
00002039 ffffeddb
0000203a 00003c91
0000203b 00001486
0000203c ffffed66
0000203d 0000069e
0000203e ffffca99
0000203f fffff8d5
00002400 ffff9204
00002401 ffffe462
00002402 00002f16
00002403 00003b35
00002404 00000286
00002405 ffffc2b9
00002406 00001a3c
00002407 ffffef31
00002408 00000ffc
00002409 00001cde
0000240a ffffda76
0000240b 00000c80
0000240c 000035fd
0000240d 0000175a
0000240e 00001771
0000240f 000019cb
00002410 ffffd260
00002411 ffffe477
00002412 000029ce
00002413 ffffeaf3
00002414 ffffeb5f
00002415 00000b97
00002416 00001e3c
00002417 ffffda85
00002418 000023b9
00002419 ffffcafb
0000241a 00002f13
0000241b 00000024
0000241c fffff895
0000241d 000033dd
0000241e 00002f31
0000241f ffffd34a
00002420 000027d6
00002421 00001fac
00002422 ffffcdab
00002423 000015e5
00002424 00003364
00002425 ffffb5e4
00002426 ffffe336
00002427 00003d46
00002428 ffffd6ee
00002429 ffffe663
0000242a 0000388e
0000242b ffffda61
0000242c ffffcd94
0000242d ffffe366
0000242e 00000560
0000242f 00001438
00002430 00000c37
00002431 00000c9a
00002432 fffff5e8
00002433 00003dfb
00002434 00003db0
00002435 ffffcdc2
00002436 0000280c
00002437 ffffcf21
00002438 00002647
00002439 00002061
0000243a ffffbd59
0000243b 0000295a
0000243c ffffecf4
0000243d 000023e0
0000243e 000042d5
0000243f fffff440
00002800 ffffef8e
00002801 ffffed14
00002802 00001bba
00002803 00000d78
00002804 00002d3f
00002805 00003c33
00002806 00002481
00002807 000039fe
00002808 ffffcef1
00002809 000008f8
0000280a ffffce20
0000280b 000010d0
0000280c 0000411f
0000280d 0000008e
0000280e ffffe193
0000280f fffff15d
00002810 000001f0
00002811 00002600
00002812 00000a15
00002813 fffff74d
00002814 ffffda70
00002815 ffffe304
00002816 000033a2
00002817 ffffaf15
00002818 ffffe0e7
00002819 00000895
0000281a 000026a7
0000281b 0000311e
0000281c 00002a93
0000281d ffffd6f4
0000281e 000007e9
0000281f 00001e5b
00002820 ffffc15e
00002821 ffffe370
00002822 00001311
00002823 00002851
00002824 ffffee8f
00002825 00002d58
00002826 ffffdfef
00002827 ffffff0b
00002828 ffffda00
00002829 0000332b
0000282a ffffc029
0000282b 000029ef
0000282c 00002332
0000282d 0000222d
0000282e 0000224f
0000282f ffffcf7f
00002830 ffffdea9
00002831 fffff117
00002832 fffff79d
00002833 000007ba
00002834 ffffe527
00002835 ffffdfe4
00002836 000029e8
00002837 00003f1b
00002838 00004484
00002839 ffffe5ad
0000283a 00001842
0000283b ffffd2ed
0000283c fffff269
0000283d ffffee1b
0000283e 00002374
0000283f 00004150
00002c00 00003c83
00002c01 000044db
00002c02 0000326a
00002c03 fffff849
00002c04 0000000a
00002c05 000017af
00002c06 ffffded3
00002c07 ffffca51
00002c08 ffffe349
00002c09 ffffe382
00002c0a fffff2e9
00002c0b ffffcfac
00002c0c 000000f4
00002c0d ffffdfd9
00002c0e fffff9e5
00002c0f ffffecf1
00002c10 00000bfe
00002c11 00000c12
00002c12 00000d4b
00002c13 ffffe2e5
00002c14 0000083d
00002c15 fffffc83
00002c16 00002afe
00002c17 000006bd
00002c18 fffff8af
00002c19 ffffbf87
00002c1a 00000295
00002c1b 00000f14
00002c1c ffffe539
00002c1d 00000ad5
00002c1e ffffe880
00002c1f 000001b6
00002c20 00000fa1
00002c21 00000512
00002c22 00004041
00002c23 ffffde54
00002c24 00002c1b
00002c25 00002271
00002c26 ffffca8d
00002c27 fffff918
00002c28 0000062a
00002c29 fffff2a7
00002c2a fffffabc
00002c2b 00000e52
00002c2c 00002d34
00002c2d ffffe0c9
00002c2e ffffebb6
00002c2f 00000463
00002c30 ffffd2e0
00002c31 ffffe71c
00002c32 00002ea4
00002c33 0000275e
00002c34 000011c1
00002c35 ffffcf49
00002c36 ffffffc2
00002c37 ffffe23e
00002c38 0000275a
00002c39 ffffd8e3
00002c3a ffffca94
00002c3b 00001d0d
00002c3c 000019ef
00002c3d 00001d8b
00002c3e 00003504
00002c3f 00000f26
00003000 000006ca
00003001 fffffe1a
00003002 ffffdacb
00003003 fffffaa7
00003004 ffffe9f4
00003005 000033bf
00003006 0000386c
00003007 00000844
00003008 fffffb7d
00003009 ffffe22c
0000300a ffffb7e9
0000300b 00002be0
0000300c 000036ab
0000300d 000019a9
0000300e 00000342
0000300f ffffdc4f
00003010 fffffc88
00003011 ffffdd0f
00003012 00002fba
00003013 fffff907
00003014 00001fab
00003015 ffffc5de
00003016 00003d8d
00003017 0000077c
00003018 fffff4b9
00003019 ffffdd60
0000301a ffffe7b6
0000301b 000024f9
0000301c ffffd138
0000301d ffffff02
0000301e 000037e4
0000301f fffff92e
00003020 00000e41
00003021 ffffccca
00003022 ffffc338
00003023 0000021a
00003024 ffffd103
00003025 ffffb710
00003026 00003017
00003027 00001eac
00003028 00001b20
00003029 00002a4e
0000302a ffffdd9d
0000302b 00002322
0000302c 00001be5
0000302d 0000396c
0000302e 000010b6
0000302f 0000233c
00003030 ffffe706
00003031 00004e48
00003032 00000888
00003033 fffff07d
00003034 000006ab
00003035 00001ea7
00003036 ffffd091
00003037 ffffe486
00003038 ffffda19
00003039 ffffe463
0000303a ffffd295
0000303b fffffcd5
0000303c 0000106c
0000303d 00001be7
0000303e 00001cda
0000303f 000007f1
00003400 ffffed1a
00003401 fffff5d2
00003402 00000d59
00003403 00003ae8
00003404 ffffc671
00003405 000011f4
00003406 0000229c
00003407 000027bf
00003408 ffffe529
00003409 00002373
0000340a ffffc169
0000340b 000038ef
0000340c ffffd860
0000340d 00003b65
0000340e ffffdc42
0000340f fffff710
00003410 00002edc
00003411 ffffd984
00003412 ffffe976
00003413 000035b7
00003414 ffffdc27
00003415 fffff835
00003416 ffffee9b
00003417 00001a03
00003418 ffffeeb1
00003419 fffff79c
0000341a 00002ac8
0000341b 00003826
0000341c ffffe118
0000341d 00002259
0000341e ffffff00
0000341f ffffe4bb
00003420 00002b1f
00003421 00000f32
00003422 ffffd1d2
00003423 ffffc05c
00003424 0000134f
00003425 00000947
00003426 00000f12
00003427 000000f9
00003428 ffffe7ab
00003429 ffffbacc
0000342a ffffd429
0000342b ffffe440
0000342c fffff5b3
0000342d ffffe7bc
0000342e 00001d94
0000342f ffffefca
00003430 000025d2
00003431 ffffe19e
00003432 ffffd95c
00003433 000026c3
00003434 ffffe181
00003435 000023e3
00003436 ffffe03e
00003437 ffffed2e
00003438 00000af3
00003439 fffff91c
0000343a 000025df
0000343b 000027bf
0000343c ffffde0f
0000343d ffffe0a0
0000343e 000006eb
0000343f 00001bbb
00003800 ffffccf0
00003801 ffff9706
00003802 0000043c
00003803 ffffd311
00003804 00000326
00003805 ffffce7d
00003806 0000075c
00003807 00003afe
00003808 00000709
00003809 ffffadad
0000380a ffffede3
0000380b ffffc4e1
0000380c ffffd080
0000380d fffff8e2
0000380e ffffeadd
0000380f ffffe9c9
00003810 0000208c
00003811 00002b6a
00003812 ffffe9be
00003813 00001073
00003814 fffff60f
00003815 ffffde60
00003816 ffffe57f
00003817 ffffd8fc
00003818 ffffdcd7
00003819 0000447a
0000381a ffffd8f3
0000381b 0000044d
0000381c 00000d7d
0000381d 00004638
0000381e ffffed59
0000381f fffff4fe
00003820 00002bab
00003821 00000b6a
00003822 000017d6
00003823 fffffdca
00003824 ffffc823
00003825 fffff96f
00003826 000045c0
00003827 000023a5
00003828 ffffe08d
00003829 ffffed82
0000382a 00003d1f
0000382b ffffdf41
0000382c 00002c00
0000382d ffffccb3
0000382e ffffe4ba
0000382f 0000439c
00003830 00001f00
00003831 00000f06
00003832 ffffcdd8
00003833 00003f83
00003834 ffffcd97
00003835 00003b1f
00003836 ffffe5c5
00003837 00000b4b
00003838 ffffdbc6
00003839 fffffae5
0000383a fffff802
0000383b 000018f3
0000383c 00000649
0000383d 00001b3f
0000383e 000007a1
0000383f 00000897
00003c00 0000245d
00003c01 00000814
00003c02 00000442
00003c03 fffffa16
00003c04 00000cb1
00003c05 00000eae
00003c06 ffffd832
00003c07 fffff0f1
00003c08 fffff697
00003c09 fffff52d
00003c0a ffffeb97
00003c0b ffffe2f5
00003c0c 00000ead
00003c0d 00000a71
00003c0e 000033f8
00003c0f 000020cb
00003c10 ffffdf18
00003c11 00001e7c
00003c12 00001d9a
00003c13 ffffeec2
00003c14 00001144
00003c15 ffffc480
00003c16 ffffca43
00003c17 00001971
00003c18 fffff19e
00003c19 000003f3
00003c1a 00000b80
00003c1b fffffd99
00003c1c 000009f9
00003c1d ffffe196
00003c1e 0000319b
00003c1f 00000431
00003c20 0000095c
00003c21 ffffc4c2
00003c22 ffffe1e7
00003c23 ffffe638
00003c24 ffffe0c7
00003c25 ffffe1f9
00003c26 00002bb9
00003c27 00000e87
00003c28 00001a19
00003c29 fffffc60
00003c2a 00002098
00003c2b 00002409
00003c2c 000008bf
00003c2d 00001f58
00003c2e ffffdc17
00003c2f ffffcf16
00003c30 00003c13
00003c31 00000138
00003c32 ffffd4f8
00003c33 000027c1
00003c34 ffffda65
00003c35 fffffe11
00003c36 fffff351
00003c37 ffffc5b6
00003c38 ffffd200
00003c39 00001dc2
00003c3a ffffe0b8
00003c3b ffffe688
00003c3c ffffd41f
00003c3d 00000796
00003c3e 0000030f
00003c3f ffffca52
00004000 000002f5
00004001 00003e3a
00004002 ffffeb56
00004003 0000262a
00004004 00003e5e
00004005 00002e60
00004006 000027d9
00004007 00002841
00004008 ffffea72
00004009 00003744
0000400a 0000225b
0000400b ffffe01a
0000400c ffffd4fe
0000400d ffffcf88
0000400e fffff9ed
0000400f 0000060f
00004010 fffff6cc
00004011 00002a4b
00004012 0000084b
00004013 00001203
00004014 00002759
00004015 00000be2
00004016 fffff094
00004017 ffffcf64
00004018 00000d15
00004019 00000850
0000401a 000008af
0000401b 000018e3
0000401c 000008c7
0000401d 0000203d
0000401e 0000085b
0000401f ffffe8a0
00004020 fffff941
00004021 000002f4
00004022 00002ae2
00004023 ffffc9c9
00004024 0000083c
00004025 00000fac
00004026 00001262
00004027 ffffd2f1
00004028 00001619
00004029 00001b70
0000402a 00002592
0000402b fffff88c
0000402c fffff6e8
0000402d fffff0d1
0000402e 00002ac9
0000402f 0000163d
00004030 fffffff3
00004031 ffffdd0b
00004032 0000426a
00004033 000011e2
00004034 00002297
00004035 ffffee39
00004036 00001980
00004037 ffffd468
00004038 000003e8
00004039 00001001
0000403a 000044bd
0000403b ffffe42d
0000403c 00000672
0000403d 0000293d
0000403e 00000b98
0000403f 000013cd
00004400 fffffba1
00004401 00001dc1
00004402 ffffed90
00004403 00002226
00004404 ffffce2a
00004405 ffffe4e5
00004406 ffffe7bf
00004407 fffff588
00004408 ffffdcc0
00004409 00002820
0000440a 00001076
0000440b 00001123
0000440c ffffef0d
0000440d 00000596
0000440e ffffef8d
0000440f 000008fb
00004410 ffffcbbf
00004411 ffffdec9
00004412 fffffaab
00004413 00003079
00004414 00000778
00004415 fffffb80
00004416 ffffe669
00004417 fffff383
00004418 ffffedfa
00004419 000033a0
0000441a 0000029a
0000441b 00002a78
0000441c ffffdab5
0000441d 00003d16
0000441e ffffe4a9
0000441f 0000359c
00004420 ffffeb77
00004421 ffffd870
00004422 ffffd1e6
00004423 ffffe7e9
00004424 fffffafa
00004425 00000a5f
00004426 fffffcce
00004427 ffffe91c
00004428 fffffd0e
00004429 00002be0
0000442a ffffe562
0000442b 00001304
0000442c ffffefd4
0000442d fffffea3
0000442e fffffd12
0000442f 000021fe
00004430 00003404
00004431 fffffe3a
00004432 00000b71
00004433 ffffcac7
00004434 fffff766
00004435 fffff9ea
00004436 00000418
00004437 00002a6b
00004438 00000b3c
00004439 000024b3
0000443a fffffd75
0000443b ffffcb10
0000443c 00001cd6
0000443d fffff376
0000443e ffffd879
0000443f ffffe5c7
00004800 000031b6
00004801 000009de
00004802 000001fd
00004803 ffffd5a0
00004804 ffffe560
00004805 ffffef72
00004806 00002443
00004807 000002ce
00004808 ffffdc4b
00004809 ffffde9e
0000480a 00004d8a
0000480b 00002e5e
0000480c ffffdc7e
0000480d ffffc49a
0000480e 00004304
0000480f 00000623
00004810 00004670
00004811 00000df0
00004812 ffffc67d
00004813 fffff7cc
00004814 fffff836
00004815 0000105d
00004816 ffffd6df
00004817 ffffeb4a
00004818 000015df
00004819 ffffc72e
0000481a ffffcc32
0000481b 0000038e
0000481c ffffda55
0000481d 0000344a
0000481e fffff7a3
0000481f 00002094
00004820 ffffd410
00004821 00000986
00004822 ffffee54
00004823 ffffebd3
00004824 ffffc881
00004825 00001347
00004826 0000295b
00004827 ffffdbf4
00004828 00001c82
00004829 ffffdfec
0000482a ffffd215
0000482b 0000283c
0000482c 0000447e
0000482d 000022db
0000482e 00001f26
0000482f fffff100
00004830 000011b9
00004831 00003875
00004832 00000ed5
00004833 ffffe689
00004834 00000979
00004835 00003aaf
00004836 000020c4
00004837 0000419c
00004838 0000377a
00004839 00001b87
0000483a 000031d5
0000483b 000048e3
0000483c 00004046
0000483d 00001a90
0000483e 00000da5
0000483f 0000303a
00004c00 ffffd029
00004c01 ffffe364
00004c02 00000e27
00004c03 00002e55
00004c04 ffffda3d
00004c05 00000430
00004c06 00000a3e
00004c07 0000013a
00004c08 ffffe99d
00004c09 00003366
00004c0a 0000283e
00004c0b ffffef86
00004c0c 000007de
00004c0d fffffce0
00004c0e 00003855
00004c0f ffffdefd
00004c10 ffffcfae
00004c11 00003633
00004c12 ffffd149
00004c13 ffffcfdb
00004c14 00001492
00004c15 000007bd
00004c16 00000a6d
00004c17 fffff813
00004c18 ffffcc3d
00004c19 ffffebfa
00004c1a ffffd0f8
00004c1b 000007f9
00004c1c 00001be9
00004c1d ffffc449
00004c1e 00000af0
00004c1f 0000051a
00004c20 0000390a
00004c21 ffffc4d3
00004c22 00002416
00004c23 ffffde8a
00004c24 fffffe8a
00004c25 00003b1e
00004c26 ffffd51d
00004c27 00001dc8
00004c28 ffffdbdc
00004c29 00001c5e
00004c2a ffffebda
00004c2b 00001b37
00004c2c 00003bc2
00004c2d 0000272a
00004c2e ffffdc40
00004c2f 00003eb1
00004c30 fffffe7b
00004c31 ffffddcc
00004c32 ffffe0f8
00004c33 00001e6a
00004c34 fffff8ad
00004c35 0000063e
00004c36 fffff9d7
00004c37 ffffc24c
00004c38 00000740
00004c39 00003b8a
00004c3a 00001679
00004c3b 0000392a
00004c3c 000023c6
00004c3d 0000060f
00004c3e fffff64c
00004c3f ffffcb49
00005000 00001e70
00005001 fffffcf1
00005002 000027e7
00005003 00001dcd
00005004 0000281f
00005005 00000702
00005006 ffffe954
00005007 fffff044
00005008 ffffd686
00005009 ffffc9c0
0000500a 000002af
0000500b 00004574
0000500c 000034cf
0000500d fffff32f
0000500e 000025cb
0000500f 000009de
00005010 ffffe90e
00005011 ffffd45f
00005012 ffffe49f
00005013 00003295
00005014 00001089
00005015 ffffcf30
00005016 00002d4d
00005017 00002268
00005018 ffffdb4e
00005019 ffffe70d
0000501a ffffd80b
0000501b ffffe28c
0000501c fffffc52
0000501d ffffe45a
0000501e 00001aaf
0000501f ffffde82
00005020 ffffe626
00005021 ffffdf04
00005022 ffffdc44
00005023 ffffcb6a
00005024 00001a98
00005025 00000458
00005026 ffffeb09
00005027 000003c0
00005028 fffffb3c
00005029 00002d81
0000502a 000002d6
0000502b 000021e3
0000502c 00001dd8
0000502d 00001d2f
0000502e 000039b1
0000502f 00002a3d
00005030 ffffd1ee
00005031 00000d99
00005032 00002feb
00005033 ffffc10f
00005034 ffffcf36
00005035 ffffd2b4
00005036 00001ad8
00005037 ffffe25f
00005038 fffff828
00005039 000005ec
0000503a ffffeaeb
0000503b ffffd213
0000503c ffffed33
0000503d 00002939
0000503e ffffe1fb
0000503f 00002fec
00005400 000030cd
00005401 000058f7
00005402 ffffee80
00005403 ffffd977
00005404 00000dc7
00005405 ffffd8a6
00005406 fffff654
00005407 00000e55
00005408 00000857
00005409 ffffc954
0000540a 00002a38
0000540b ffffd7eb
0000540c fffff496
0000540d ffffbf7c
0000540e ffffec1a
0000540f 00002e48
00005410 ffffcc75
00005411 ffffd1c0
00005412 00001d0e
00005413 000000b9
00005414 00001187
00005415 00002de9
00005416 00000da1
00005417 ffffe9e9
00005418 00003e25
00005419 000020d2
0000541a 00000efe
0000541b ffffe8eb
0000541c ffffd386
0000541d ffffdf7e
0000541e 00001439
0000541f ffffeb5d
00005420 000020b7
00005421 0000095f
00005422 00002127
00005423 ffffe18a
00005424 00001ba1
00005425 ffffe693
00005426 000016dd
00005427 0000247c
00005428 ffffd79d
00005429 ffffbb75
0000542a 0000144d
0000542b 00000c8a
0000542c 00000b23
0000542d ffffcd39
0000542e ffffe117
0000542f ffffdeca
00005430 00003807
00005431 ffffe585
00005432 00002082
00005433 00001d7e
00005434 00002aa6
00005435 ffffcff7
00005436 ffffd59c
00005437 fffff9d7
00005438 000008a9
00005439 ffffd5f7
0000543a ffffd5ea
0000543b ffffe841
0000543c fffff9f8
0000543d 00003176
0000543e 000026fc
0000543f ffffea9b
00005800 ffffdaaf
00005801 ffffebcf
00005802 00003246
00005803 000020a1
00005804 0000283f
00005805 000008df
00005806 ffffdb56
00005807 00003232
00005808 ffffbae4
00005809 fffff5b3
0000580a ffffea5f
0000580b ffffff51
0000580c 00001028
0000580d fffff93e
0000580e fffff43f
0000580f 00002ff4
00005810 fffff0db
00005811 00002bce
00005812 000014e7
00005813 00002964
00005814 ffffdfff
00005815 ffffd88c
00005816 00001b8a
00005817 000009a7
00005818 000017bd
00005819 00001fd0
0000581a ffffedcf
0000581b 000034f0
0000581c ffffff70
0000581d ffffc620
0000581e 00001f6b
0000581f fffffe92
00005820 ffffd387
00005821 ffffdd90
00005822 00002da0
00005823 00003baf
00005824 ffffef3d
00005825 0000315a
00005826 00001ab4
00005827 000019f7
00005828 00000384
00005829 ffffefff
0000582a fffff339
0000582b 00000462
0000582c ffffdde4
0000582d 00002027
0000582e fffffc5f
0000582f 000012b6
00005830 0000065e
00005831 ffffef0e
00005832 00000a80
00005833 ffffd25f
00005834 fffff24d
00005835 ffffe4b7
00005836 fffffdc1
00005837 ffffd676
00005838 000036ba
00005839 ffffd9e4
0000583a 00002635
0000583b ffffc274
0000583c fffff16d
0000583d 00003de8
0000583e fffff11f
0000583f 00002c0e
00005c00 fffffd68
00005c01 ffff987b
00005c02 000017c9
00005c03 00001354
00005c04 ffffd0c2
00005c05 000027ec
00005c06 fffff680
00005c07 00003038
00005c08 ffffeee9
00005c09 ffffc843
00005c0a 00001aba
00005c0b 000014e2
00005c0c ffffcbc4
00005c0d ffffcf5c
00005c0e fffffaaf
00005c0f 0000077d
00005c10 00004654
00005c11 000006ac
00005c12 00001183
00005c13 ffffca7c
00005c14 000031dd
00005c15 ffffcd4f
00005c16 000000cb
00005c17 0000102f
00005c18 ffffd90f
00005c19 ffffe5f1
00005c1a ffffe275
00005c1b ffffedb4
00005c1c ffffd5fd
00005c1d ffffcce6
00005c1e 00002620
00005c1f ffffef98
00005c20 ffffeb43
00005c21 000033fd
00005c22 00003581
00005c23 ffffc8b2
00005c24 ffffdd33
00005c25 ffffde3c
00005c26 0000108a
00005c27 0000160b
00005c28 00003d36
00005c29 ffffcf6c
00005c2a fffffc9a
00005c2b 00000b07
00005c2c ffffd2e0
00005c2d 00002483
00005c2e ffffeda9
00005c2f 000006ff
00005c30 000016d3
00005c31 00000aea
00005c32 00000839
00005c33 fffff462
00005c34 fffff95d
00005c35 0000218d
00005c36 ffffcd14
00005c37 00002b2c
00005c38 000047e8
00005c39 ffffd472
00005c3a fffffe17
00005c3b 00001b91
00005c3c ffffe03e
00005c3d ffffde94
00005c3e 0000022f
00005c3f ffffcd68
00006000 ffffd276
00006001 ffff9e73
00006002 00000669
00006003 00003098
00006004 00002f6e
00006005 ffffb8ac
00006006 ffffe961
00006007 ffffd4c2
00006008 ffffe5fd
00006009 00003115
0000600a 00002eea
0000600b ffffd053
0000600c ffffd8ab
0000600d 00002821
0000600e 000029ee
0000600f fffffbd7
00006010 00001180
00006011 ffffff0e
00006012 00002184
00006013 00000d85
00006014 ffffd4c6
00006015 000001f2
00006016 000013c6
00006017 fffff50f
00006018 000016f1
00006019 ffffc8f7
0000601a ffffe559
0000601b fffff1f3
0000601c ffffc279
0000601d ffffc724
0000601e ffffd962
0000601f 0000277c
00006020 00000e52
00006021 fffff3bc
00006022 ffffcdd7
00006023 0000267d
00006024 0000188f
00006025 00002851
00006026 00004862
00006027 00002fe8
00006028 0000210d
00006029 0000038f
0000602a ffffefe8
0000602b fffff63e
0000602c 00001a3c
0000602d 00003044
0000602e 00001bd8
0000602f ffffcd74
00006030 0000201f
00006031 ffffd795
00006032 0000083f
00006033 00002920
00006034 00002825
00006035 ffffe9fd
00006036 ffffd0c8
00006037 00003098
00006038 fffff7e5
00006039 000006df
0000603a fffff540
0000603b fffffa7f
0000603c 00000229
0000603d 000030a7
0000603e ffffcbbb
0000603f fffff819
00006400 00002306
00006401 000003ff
00006402 00000766
00006403 00002fd1
00006404 00002956
00006405 ffffe1ef
00006406 00001c8d
00006407 00000231
00006408 00001117
00006409 ffffd2e8
0000640a ffffe24a
0000640b 00000937
0000640c 00001c34
0000640d 00000aab
0000640e 000047bb
0000640f 00002d53
00006410 ffffe7e1
00006411 00002755
00006412 ffffb43b
00006413 ffffec09
00006414 00001122
00006415 00001b40
00006416 0000181a
00006417 00001bc1
00006418 ffffff01
00006419 000029bb
0000641a ffffd6e1
0000641b ffffe472
0000641c 00002dcc
0000641d 000012e9
0000641e 000001ee
0000641f 00003370
00006420 00001226
00006421 ffffc8fa
00006422 0000322e
00006423 00002171
00006424 fffff96d
00006425 00003f12
00006426 fffff958
00006427 ffffe690
00006428 00002586
00006429 00000605
0000642a 000020dd
0000642b fffff8bb
0000642c ffffd608
0000642d 0000302f
0000642e ffffe0b1
0000642f 0000326c
00006430 000040e3
00006431 0000110a
00006432 00002948
00006433 00002e81
00006434 ffffd668
00006435 fffff609
00006436 fffffc1d
00006437 000010b9
00006438 ffffde7c
00006439 000034ac
0000643a 00002d2b
0000643b ffffc548
0000643c 00000063
0000643d 00001333
0000643e ffffe5d4
0000643f 000017d1
00006800 ffffeccb
00006801 ffffa8a0
00006802 000032b0
00006803 00002b9d
00006804 ffffd974
00006805 ffffe745
00006806 00002fdb
00006807 fffffcc2
00006808 0000140c
00006809 ffffd6ab
0000680a ffffcd44
0000680b ffffd599
0000680c ffffc973
0000680d ffffce46
0000680e fffffe12
0000680f 0000069b
00006810 ffffe613
00006811 ffffd45f
00006812 ffffd1a3
00006813 fffff74f
00006814 ffffdd43
00006815 ffffc6cc
00006816 ffffd33c
00006817 0000048b
00006818 00000c88
00006819 00000aff
0000681a 00000772
0000681b 00002f44
0000681c 00002302
0000681d 000005c2
0000681e ffffed66
0000681f 000035f0
00006820 ffffc70a
00006821 000005f8
00006822 00000ccc
00006823 ffffcf7c
00006824 00001147
00006825 000023b2
00006826 00003e99
00006827 ffffe5ab
00006828 ffffe559
00006829 00002d6b
0000682a ffffe530
0000682b 0000286d
0000682c 0000167b
0000682d 00003206
0000682e 000000f7
0000682f 00000ed0
00006830 00000999
00006831 ffffef5c
00006832 00000ee0
00006833 ffffdb49
00006834 000013bd
00006835 ffffca37
00006836 00003b86
00006837 000000a9
00006838 ffffe1af
00006839 00002f04
0000683a ffffe498
0000683b 000036eb
0000683c 000025ee
0000683d ffffdca3
0000683e ffffe807
0000683f ffffcece
00006c00 00000e98
00006c01 000014a1
00006c02 000017e4
00006c03 00001406
00006c04 fffff6e3
00006c05 ffffe790
00006c06 00000ce3
00006c07 ffffe72c
00006c08 ffffeb97
00006c09 ffffcdf9
00006c0a fffff3ad
00006c0b 000008c7
00006c0c ffffeabc
00006c0d 000015f5
00006c0e fffff41e
00006c0f ffffd72e
00006c10 00001e72
00006c11 ffffe832
00006c12 fffff7d7
00006c13 ffffcfa4
00006c14 ffffd8cb
00006c15 ffffe81c
00006c16 00003625
00006c17 00000d56
00006c18 00002169
00006c19 fffff8db
00006c1a 000016a5
00006c1b ffffda6c
00006c1c ffffe915
00006c1d 00004287
00006c1e ffffe085
00006c1f ffffc718
00006c20 ffffe65b
00006c21 ffffec53
00006c22 fffff2fc
00006c23 00002c20
00006c24 000027b9
00006c25 ffffef5e
00006c26 0000065f
00006c27 00002cd8
00006c28 ffffdcda
00006c29 fffff8fe
00006c2a ffffc86d
00006c2b fffff337
00006c2c 00002374
00006c2d ffffe030
00006c2e 00002461
00006c2f ffffdd90
00006c30 ffffe5b8
00006c31 ffffcd28
00006c32 000008d6
00006c33 fffff5f1
00006c34 00001781
00006c35 00003744
00006c36 00003413
00006c37 ffffe2de
00006c38 00001fee
00006c39 0000230a
00006c3a ffffe625
00006c3b 00001c42
00006c3c 00002d14
00006c3d ffffe0d1
00006c3e 00001693
00006c3f ffffeef2
00007000 000039c6
00007001 0000460a
00007002 fffff9bb
00007003 000037d1
00007004 ffffd7b5
00007005 000002aa
00007006 fffffd63
00007007 00002855
00007008 00002d1c
00007009 00002c94
0000700a ffffb4a3
0000700b 00000e16
0000700c 00002b0a
0000700d 00003780
0000700e ffffcd16
0000700f ffffe04c
00007010 00002e31
00007011 ffffe28c
00007012 000001de
00007013 000032ec
00007014 fffff3b0
00007015 0000448d
00007016 000022ac
00007017 000037d1
00007018 fffff393
00007019 ffffebe4
0000701a ffffc2b6
0000701b 00002a39
0000701c ffffc876
0000701d ffffd8d8
0000701e fffff932
0000701f ffffbfb4
00007020 00002c68
00007021 ffffbc2d
00007022 000038d7
00007023 00004354
00007024 00001e8d
00007025 000000d1
00007026 ffffc919
00007027 00000367
00007028 ffffee7c
00007029 00000e11
0000702a 00001948
0000702b 0000418d
0000702c ffffcdca
0000702d fffff2f3
0000702e ffffd9e6
0000702f 00000eff
00007030 00001bcc
00007031 ffffffa2
00007032 000022b3
00007033 fffff476
00007034 ffffe593
00007035 000012b1
00007036 0000070c
00007037 fffff732
00007038 ffffd704
00007039 00003270
0000703a fffff1a4
0000703b ffffcd5b
0000703c 00000eb4
0000703d fffffd9d
0000703e ffffdd32
0000703f 00000a13
00007400 000003ca
00007401 000021a3
00007402 000013fa
00007403 00000474
00007404 fffffd9f
00007405 fffffc88
00007406 00002f58
00007407 0000087e
00007408 00001a8a
00007409 000016a1
0000740a 00000c97
0000740b ffffca9d
0000740c ffffe0a8
0000740d fffff72d
0000740e fffff313
0000740f 00000be9
00007410 000012a8
00007411 000006b4
00007412 00002b65
00007413 000008a7
00007414 fffff4b0
00007415 fffff353
00007416 fffff250
00007417 0000134b
00007418 ffffe82f
00007419 fffff6be
0000741a 00002138
0000741b 00002f07
0000741c 000014f1
0000741d ffffea76
0000741e 00002e56
0000741f fffff97f
00007420 ffffd08c
00007421 ffffd2a8
00007422 ffffd8bd
00007423 ffffbf50
00007424 00001cee
00007425 00000e3a
00007426 0000071c
00007427 ffffdca9
00007428 00001b38
00007429 00003dd8
0000742a 00002505
0000742b fffffc9c
0000742c ffffbbb2
0000742d 00002226
0000742e 00001b5e
0000742f 00002b93
00007430 ffffd887
00007431 000005f5
00007432 ffffe5a4
00007433 fffff28e
00007434 00001738
00007435 0000116e
00007436 00001fd9
00007437 00000ae6
00007438 ffffcec6
00007439 ffffc1c7
0000743a ffffde12
0000743b 0000304b
0000743c 00000323
0000743d fffff0cf
0000743e 0000188f
0000743f 00002dba
00007800 ffffbe45
00007801 00000406
00007802 fffff476
00007803 ffffe45b
00007804 ffffd8e4
00007805 ffffe45d
00007806 fffff8b8
00007807 ffffd0a5
00007808 fffff162
00007809 000000c4
0000780a fffff306
0000780b ffffdff1
0000780c ffffb900
0000780d 00003a32
0000780e 000010f8
0000780f fffffacb
00007810 0000011d
00007811 ffffee89
00007812 ffffec35
00007813 000022a2
00007814 fffffc8c
00007815 00002602
00007816 ffffe667
00007817 00001008
00007818 ffffdb80
00007819 ffffd34a
0000781a 00000a23
0000781b ffffe646
0000781c ffffeffa
0000781d ffffc8a9
0000781e ffffc5d3
0000781f ffffe1b9
00007820 fffff932
00007821 ffffc522
00007822 000027d0
00007823 ffffe052
00007824 ffffcb52
00007825 ffffddbd
00007826 00001e69
00007827 000008a3
00007828 00001096
00007829 00001e8e
0000782a 00002e42
0000782b fffff63a
0000782c ffffbb54
0000782d ffffdc20
0000782e 000038dc
0000782f 00000cd1
00007830 fffff095
00007831 ffffefd3
00007832 ffffff90
00007833 00001529
00007834 ffffe613
00007835 ffffe7f6
00007836 ffffdc91
00007837 000026c2
00007838 fffff322
00007839 000017be
0000783a 00001bcd
0000783b 00001e2b
0000783c ffffdc34
0000783d ffffcfc0
0000783e 00000b6c
0000783f 00001e5f
00007c00 fffffbc2
00007c01 ffffa583
00007c02 00001497
00007c03 ffffe437
00007c04 00003949
00007c05 00000361
00007c06 fffff578
00007c07 ffffe944
00007c08 fffff2b3
00007c09 ffffe503
00007c0a 000006ab
00007c0b 00001648
00007c0c 000035fa
00007c0d 00002f77
00007c0e 00002534
00007c0f ffffcbc4
00007c10 00000ea2
00007c11 0000464d
00007c12 ffffea36
00007c13 000000f7
00007c14 0000112a
00007c15 00000558
00007c16 00001818
00007c17 ffffd991
00007c18 ffffd5e9
00007c19 00002c91
00007c1a 000010e5
00007c1b ffffebd9
00007c1c ffffc66d
00007c1d 00001f9a
00007c1e 00000b4b
00007c1f 000023b9
00007c20 00004a95
00007c21 000015fb
00007c22 000000a9
00007c23 ffffebdf
00007c24 ffffcbb4
00007c25 000008d1
00007c26 ffffdcbc
00007c27 ffffcb5d
00007c28 ffffe8e4
00007c29 ffffd682
00007c2a ffffe696
00007c2b 00002880
00007c2c 00004304
00007c2d ffffccd9
00007c2e 00003951
00007c2f ffffcf67
00007c30 0000343a
00007c31 fffffaad
00007c32 000029e4
00007c33 ffffe3ee
00007c34 00000256
00007c35 000008ee
00007c36 00000c02
00007c37 ffffe8c8
00007c38 00001145
00007c39 0000261c
00007c3a ffffe8a3
00007c3b fffff721
00007c3c fffff0dc
00007c3d 000032e6
00007c3e 00000853
00007c3f ffffbe81
00800000 000017d0
00800400 000000f4
00800800 00000085
00800c00 00000341
00801000 000001d6
00801400 fffff6e5
00801800 fffffb05
00801c00 00001359
00802000 fffff999
00802400 0000196b
00802800 fffff1da
00802c00 fffffb74
00803000 fffffe2a
00803400 fffff33a
00803800 00000bae
00803c00 fffff2fd
00804000 fffffafb
00804400 fffffb91
00804800 00000858
00804c00 0000063d
00805000 fffff103
00805400 fffffad3
00805800 000003bf
00805c00 00001281
00806000 0000194b
00806400 fffffb16
00806800 00000a51
00806c00 fffff209
00807000 00000a69
00807400 fffff2d8
00807800 00000576
00807c00 00000dd4
01000000 ffffd29b
01000001 ffffcd68
01000002 0000106f
01000003 ffffeb62
01000004 0000139b
01000005 00001d15
01000006 0000242a
01000007 ffffbebe
01000008 00000507
01000009 ffffdcdb
0100000a 0000113a
0100000b 000036df
0100000c ffffcbc4
0100000d 00002edc
0100000e ffffe9fb
0100000f 000047f3
01000010 000030b6
01000011 00004be8
01000012 00000a9d
01000013 ffffeb96
01000014 000026ee
01000015 000036cc
01000016 ffffcd9f
01000017 ffffd36e
01000018 ffffd814
01000019 0000124c
0100001a ffffce30
0100001b 000031b0
0100001c 0000198f
0100001d 00003463
0100001e ffffc1bb
0100001f ffffc6a9
01800000 fffff551
