00000000 00002435
00000001 00000943
00000002 00004119
00000003 ffffe76f
00000004 0000247c
00000005 ffffd9de
00000006 ffffda88
00000007 00003e2d
00000008 000020c6
00000009 fffffba1
0000000a ffffc4cb
0000000b 000021fb
0000000c fffff8f1
0000000d 00001dd4
0000000e ffffd6e1
0000000f 00000cce
00000010 00001191
00000011 ffffcb44
00000012 0000004a
00000013 00002127
00000014 00003dc9
00000015 ffffee56
00000016 00000011
00000017 0000209b
00000018 ffffcecf
00000019 ffffdbcb
0000001a fffffcc8
0000001b ffffe73e
0000001c 00000f16
0000001d fffffce8
0000001e 0000378c
0000001f 00002fde
00000020 00002ae8
00000021 0000014b
00000022 ffffc966
00000023 ffffda1c
00000024 000031e5
00000025 000026a7
00000026 ffffdf5e
00000027 ffffec83
00000028 000000e7
00000029 ffffb94c
0000002a 00002e35
0000002b ffffc733
0000002c ffffddad
0000002d 000046c4
0000002e 0000117f
0000002f ffffb83f
00000030 ffffebbd
00000031 ffffe6f6
00000032 00003543
00000033 00002b05
00000034 ffffd9ff
00000035 00003b70
00000036 00001115
00000037 000006ed
00000038 00000f60
00000039 fffffc7e
0000003a ffffc639
0000003b fffff78a
0000003c 00001596
0000003d ffffe880
0000003e ffffd00e
0000003f ffffffaf
00000400 000003da
00000401 00002c7e
00000402 ffffd311
00000403 00000388
00000404 fffffb91
00000405 fffff06c
00000406 00001041
00000407 fffffe10
00000408 ffffeef5
00000409 fffff76e
0000040a ffffd628
0000040b fffffcd5
0000040c 000016c8
0000040d ffffff55
0000040e ffffd513
0000040f 000019f1
00000410 00002a43
00000411 ffffe1ff
00000412 000017ea
00000413 00001af2
00000414 000007ee
00000415 00000cb3
00000416 ffffbf49
00000417 00001069
00000418 fffffce1
00000419 00001ee8
0000041a 00001e46
0000041b ffffb553
0000041c fffff950
0000041d fffff048
0000041e 000000b8
0000041f ffffe056
00000420 00003296
00000421 0000168e
00000422 ffffecf3
00000423 000016c0
00000424 ffffee76
00000425 000004e2
00000426 000023d4
00000427 ffffd4f5
00000428 000024d8
00000429 00003e11
0000042a 00001756
0000042b ffffcc15
0000042c fffff9cc
0000042d fffff36d
0000042e 00003189
0000042f 00000e1b
00000430 00001d64
00000431 ffffc499
00000432 ffffcf48
00000433 ffffe595
00000434 000035e2
00000435 fffff515
00000436 ffffe9d2
00000437 00001632
00000438 ffffdcac
00000439 0000104f
0000043a ffffe9e6
0000043b 00000c5b
0000043c fffffb6b
0000043d 0000315d
0000043e ffffddfb
0000043f 00004ba1
00000800 ffffe21a
00000801 ffffbd13
00000802 0000476a
00000803 fffff4f8
00000804 00001ab0
00000805 ffffe319
00000806 00001a51
00000807 00000a72
00000808 00003333
00000809 ffffd70b
0000080a fffffc12
0000080b 00000ce5
0000080c fffff9b4
0000080d fffff10a
0000080e 00003ee7
0000080f 00001f86
00000810 000035cf
00000811 000023d3
00000812 00004cf2
00000813 00000616
00000814 ffffc10b
00000815 000013eb
00000816 000020c8
00000817 00003053
00000818 ffffba84
00000819 00000d97
0000081a 00000a16
0000081b 00000ba2
0000081c fffff5f2
0000081d fffffd9c
0000081e 000019cb
0000081f fffff400
00000820 ffffe0b1
00000821 00003c32
00000822 00004bce
00000823 0000287c
00000824 ffffc0dd
00000825 ffffe7d4
00000826 00001bb8
00000827 0000035f
00000828 ffffecb1
00000829 000019d4
0000082a 00002a2c
0000082b 000020fa
0000082c ffffb3d5
0000082d 000002c4
0000082e 00003375
0000082f ffffd9c2
00000830 000003a6
00000831 0000461c
00000832 00002a31
00000833 fffffd1e
00000834 00001b04
00000835 fffff465
00000836 fffffc5c
00000837 ffffdbb9
00000838 0000025d
00000839 00002b92
0000083a ffffde82
0000083b 00000997
0000083c 00000e85
0000083d ffffbf89
0000083e 00001b41
0000083f fffff36b
00000c00 00000266
00000c01 0000093b
00000c02 000025c9
00000c03 000003a6
00000c04 00002283
00000c05 000039d7
00000c06 000021e6
00000c07 ffffef22
00000c08 fffff724
00000c09 ffffdb7b
00000c0a ffffe596
00000c0b 000002a8
00000c0c ffffbb1d
00000c0d ffffeb12
00000c0e 00001836
00000c0f 000017ab
00000c10 000015d5
00000c11 00002f28
00000c12 00003c3b
00000c13 000006f8
00000c14 000003e9
00000c15 ffffe4c7
00000c16 ffffe539
00000c17 00002abd
00000c18 ffffd462
00000c19 ffffc4a3
00000c1a 000022f7
00000c1b 00002d82
00000c1c ffffe112
00000c1d 00002adc
00000c1e 0000265c
00000c1f 00001b24
00000c20 fffff8f0
00000c21 ffffb6c6
00000c22 00001424
00000c23 00003491
00000c24 00003c39
00000c25 fffff242
00000c26 00002dd9
00000c27 00002b53
00000c28 ffffc4c7
00000c29 000020b8
00000c2a 00002467
00000c2b 00000672
00000c2c ffffd731
00000c2d 00001d6f
00000c2e ffffef76
00000c2f 00000acc
00000c30 fffffb48
00000c31 0000266e
00000c32 00001294
00000c33 000024b8
00000c34 ffffb84e
00000c35 ffffff5e
00000c36 ffffed83
00000c37 00000b16
00000c38 00000dc6
00000c39 ffffed8d
00000c3a 00004492
00000c3b 000028cc
00000c3c ffffd148
00000c3d ffffedfc
00000c3e ffffe28b
00000c3f ffffdb5a
00001000 ffffb450
00001001 ffffbdda
00001002 00000129
00001003 0000026a
00001004 00003918
00001005 00000670
00001006 00002c45
00001007 ffffe01b
00001008 00002d85
00001009 ffffc0f4
0000100a 00003a37
0000100b 00000926
0000100c ffffc302
0000100d 00000a25
0000100e 000007f6
0000100f 00000496
00001010 00002b45
00001011 ffffd819
00001012 fffff49c
00001013 00003ae7
00001014 ffffb636
00001015 ffffe889
00001016 ffffc628
00001017 00003828
00001018 000033d6
00001019 ffffe3bf
0000101a ffffcadc
0000101b 00001566
0000101c ffffcceb
0000101d ffffe633
0000101e ffffdfde
0000101f fffffcb1
00001020 ffffc524
00001021 ffffda43
00001022 000033f2
00001023 00004757
00001024 ffffe0dd
00001025 fffff83c
00001026 ffffddff
00001027 ffffe64f
00001028 fffff82e
00001029 ffffd2c8
0000102a ffffed8e
0000102b fffffbe0
0000102c 00001bf4
0000102d ffffca82
0000102e 0000353f
0000102f ffffdd5b
00001030 00001471
00001031 0000298b
00001032 00003cf8
00001033 0000302f
00001034 000008cd
00001035 fffff2d5
00001036 fffff1c6
00001037 00002c3f
00001038 000010cc
00001039 0000078c
0000103a 0000281a
0000103b 00002b93
0000103c 00005827
0000103d fffff387
0000103e 00000c20
0000103f ffffd6f0
00001400 00006d13
00001401 00004741
00001402 00002838
00001403 ffffd72a
00001404 fffff698
00001405 ffffdfe9
00001406 00002c9f
00001407 000032b0
00001408 fffff732
00001409 00000806
0000140a ffffe619
0000140b 00000f8a
0000140c 00001037
0000140d ffffdfba
0000140e 00001b47
0000140f 00001fdc
00001410 ffffc626
00001411 00000347
00001412 ffffce7a
00001413 0000267a
00001414 00002943
00001415 ffffeef8
00001416 000010c6
00001417 ffffeaec
00001418 fffff221
00001419 ffffe0bd
0000141a 00004cff
0000141b ffffe90c
0000141c fffff18d
0000141d ffffc0df
0000141e 000013d1
0000141f ffffcdc5
00001420 ffffef87
00001421 00000097
00001422 ffffd475
00001423 000010f2
00001424 00000641
00001425 000001bd
00001426 0000123c
00001427 ffffd9fe
00001428 ffffc55d
00001429 000004f6
0000142a fffff19f
0000142b 0000225d
0000142c ffffcd37
0000142d 0000351a
0000142e 000010cc
0000142f fffff085
00001430 0000157c
00001431 0000077e
00001432 000026f2
00001433 00004643
00001434 fffffb06
00001435 ffffdadc
00001436 ffffd4aa
00001437 000027f8
00001438 ffffc592
00001439 000014f9
0000143a 00002304
0000143b 00001e2f
0000143c 00004d6d
0000143d 00000532
0000143e 00000d4f
0000143f ffffd59a
00001800 0000743c
00001801 0000b05d
00001802 ffffe56e
00001803 fffffdcf
00001804 000005d3
00001805 ffffdb05
00001806 0000138c
00001807 000015d7
00001808 fffff740
00001809 00001f3a
0000180a 00000934
0000180b fffffb5a
0000180c 000006c5
0000180d ffffe8e6
0000180e ffffd5ef
0000180f fffff1c6
00001810 ffffb272
00001811 fffff83b
00001812 ffffcf87
00001813 ffffce08
00001814 ffffff7d
00001815 00003649
00001816 0000160a
00001817 fffff389
00001818 000007b9
00001819 00002864
0000181a ffffd853
0000181b 00001e76
0000181c 000024d9
0000181d 00000c86
0000181e 00001af6
0000181f ffffe91d
00001820 fffff8ff
00001821 ffffd8a1
00001822 ffffddcd
00001823 00003052
00001824 0000047f
00001825 ffffc9a9
00001826 00000bc2
00001827 00002e13
00001828 ffffea61
00001829 0000121c
0000182a 00000b8a
0000182b 000009e4
0000182c fffffb30
0000182d ffffd990
0000182e ffffdd62
0000182f ffffda3d
00001830 ffffdcb1
00001831 ffffd0d1
00001832 00001afb
00001833 ffffdf5e
00001834 ffffd80a
00001835 00000e50
00001836 00003274
00001837 ffffea59
00001838 00001a61
00001839 fffff162
0000183a 00001177
0000183b ffffd0a8
0000183c 0000274b
0000183d 00001d73
0000183e ffffde55
0000183f 00000cf8
00001c00 ffffcc10
00001c01 ffff9dc2
00001c02 fffff52c
00001c03 ffffdc43
00001c04 ffffa507
00001c05 0000015f
00001c06 00000c30
00001c07 00003e1a
00001c08 000024c0
00001c09 00001f1e
00001c0a fffffc6f
00001c0b 0000144c
00001c0c 0000229c
00001c0d fffff696
00001c0e 00003011
00001c0f ffffb7e0
00001c10 ffffd0d2
00001c11 ffffe28c
00001c12 0000118c
00001c13 00003b50
00001c14 ffffc467
00001c15 000046bb
00001c16 00001fb5
00001c17 ffffcb05
00001c18 0000062e
00001c19 ffffffac
00001c1a ffffd8ce
00001c1b ffffcc66
00001c1c 00002ca9
00001c1d fffff83c
00001c1e 00002342
00001c1f ffffd91d
00001c20 000040f1
00001c21 00002635
00001c22 ffffe835
00001c23 00001ec5
00001c24 fffff04d
00001c25 00003201
00001c26 0000310c
00001c27 00002604
00001c28 00004be9
00001c29 ffffe130
00001c2a 00003bac
00001c2b 00000ec7
00001c2c fffff6a6
00001c2d ffffec23
00001c2e ffffbb46
00001c2f ffffcc2d
00001c30 00002c2c
00001c31 0000006b
00001c32 00002591
00001c33 ffffe568
00001c34 fffffd19
00001c35 ffffeac2
00001c36 ffffde97
00001c37 00001c01
00001c38 ffffcd36
00001c39 ffffbfd4
00001c3a fffff386
00001c3b fffff35d
00001c3c 000012e5
00001c3d ffffbf84
00001c3e ffffe1e0
00001c3f 00001c48
00002000 ffff83c6
00002001 ffffb6cd
00002002 00000fed
00002003 000014ac
00002004 00001c48
00002005 fffff463
00002006 000028df
00002007 00001ba7
00002008 ffffc953
00002009 00003d6f
0000200a 00000eda
0000200b ffffeeb4
0000200c ffffbff8
0000200d 000005d5
0000200e ffffe23f
0000200f 00001c17
00002010 00001dc0
00002011 ffffccb3
00002012 00000be2
00002013 ffffc313
00002014 fffffa11
00002015 ffffc3da
00002016 fffff6a4
00002017 0000009c
00002018 ffffdb1e
00002019 00003e36
0000201a fffff2db
0000201b 0000425d
0000201c 00000ee6
0000201d 00000b21
0000201e fffff286
0000201f 00002789
00002020 fffffcad
00002021 000027f1
00002022 00002e56
00002023 ffffd473
00002024 ffffff52
00002025 fffffb1e
00002026 ffffd364
00002027 ffffd641
00002028 ffffe2cf
00002029 0000074e
0000202a 00001d5b
0000202b 00002115
0000202c ffffe5d0
0000202d ffffd1f5
0000202e 000026c9
0000202f fffffdf9
00002030 fffff6d8
00002031 000000c2
00002032 ffffbd87
00002033 ffffe3bb
00002034 ffffb6a2
00002035 00001e04
00002036 ffffdf08
00002037 ffffd30b
00002038 00001b88
00002039 00000b8b
0000203a 00000eb1
0000203b 00003f47
0000203c 00001d46
0000203d 00001877
0000203e ffffd6f0
0000203f ffffd405
00002400 ffff96c6
00002401 ffff0431
00002402 fffffbd6
00002403 00003b66
00002404 00001202
00002405 ffffe22c
00002406 00000cd3
00002407 00003d90
00002408 fffff97c
00002409 000003e0
0000240a ffffdb08
0000240b 000005f0
0000240c ffffc61d
0000240d fffff4fb
0000240e ffffe503
0000240f ffffcd44
00002410 00001b82
00002411 00002b62
00002412 ffffe682
00002413 fffff9a1
00002414 ffffe8ae
00002415 ffffecec
00002416 00001654
00002417 00000a39
00002418 00005e58
00002419 ffffe780
0000241a ffffe6bd
0000241b 00004e66
0000241c ffffe2b5
0000241d 00003a8c
0000241e fffff4a9
0000241f ffffd3a4
00002420 00003ab5
00002421 ffffd7f8
00002422 ffffd646
00002423 ffffda90
00002424 fffffd79
00002425 ffffc582
00002426 ffffea71
00002427 00000f7b
00002428 00001119
00002429 ffffb32b
0000242a ffffd9e8
0000242b 00003091
0000242c 00002a8b
0000242d 00003368
0000242e 00000202
0000242f ffffc5cf
00002430 ffffe289
00002431 fffff43c
00002432 ffffc8a5
00002433 ffffcf63
00002434 00000933
00002435 ffffd280
00002436 00002a75
00002437 ffffcd5d
00002438 0000168e
00002439 000039ba
0000243a 0000345f
0000243b fffffeca
0000243c 00001358
0000243d ffffff2f
0000243e 0000077f
0000243f ffffedf2
00002800 ffff7f2a
00002801 ffff3b08
00002802 ffffc715
00002803 00001235
00002804 ffffe9ca
00002805 00000295
00002806 00001d8f
00002807 fffffa4d
00002808 00002f8e
00002809 ffffef4d
0000280a 000024db
0000280b 000021bc
0000280c ffffc4d4
0000280d ffffde21
0000280e 00001e5f
0000280f ffffde0e
00002810 ffffd2b9
00002811 ffffe55d
00002812 000016ec
00002813 ffffc828
00002814 fffff5a2
00002815 ffffc304
00002816 00002479
00002817 fffffc6a
00002818 ffffb52f
00002819 ffffc4f0
0000281a fffffabf
0000281b ffffcd38
0000281c 00000e89
0000281d ffffe7af
0000281e 00002006
0000281f fffffb5c
00002820 fffff457
00002821 00002347
00002822 00002a88
00002823 ffffcccc
00002824 ffffb990
00002825 ffffcc0f
00002826 ffffd0b4
00002827 00000c38
00002828 0000215e
00002829 000005df
0000282a 00002136
0000282b 000040c5
0000282c ffffeb4d
0000282d fffff99f
0000282e 00000e6b
0000282f 00002991
00002830 00002a34
00002831 ffffccd8
00002832 ffffefd0
00002833 000002e5
00002834 0000367c
00002835 00000f1d
00002836 000003a1
00002837 000002e2
00002838 00002491
00002839 00000381
0000283a ffffcb2a
0000283b fffffc0d
0000283c 00003388
0000283d fffff4e0
0000283e ffffd0b0
0000283f 0000255b
00002c00 ffffd80e
00002c01 fffff9bc
00002c02 ffffed6d
00002c03 000013b6
00002c04 ffffe306
00002c05 ffffea58
00002c06 fffffe8a
00002c07 ffffe169
00002c08 000003dd
00002c09 0000264d
00002c0a 00000fe7
00002c0b ffffeb96
00002c0c fffff47e
00002c0d ffffe790
00002c0e 0000098b
00002c0f 000029db
00002c10 000012a9
00002c11 00000afb
00002c12 00000df8
00002c13 0000288c
00002c14 000040fc
00002c15 ffffe1a3
00002c16 00002755
00002c17 fffffa1c
00002c18 ffffc589
00002c19 00000b3d
00002c1a 0000030d
00002c1b ffffdb7c
00002c1c fffff7b9
00002c1d ffffccb5
00002c1e 00002996
00002c1f fffff229
00002c20 ffffc445
00002c21 00001f63
00002c22 000032b8
00002c23 ffffec47
00002c24 00001e4e
00002c25 000034b3
00002c26 00001fe4
00002c27 000022d7
00002c28 ffffe78e
00002c29 0000260c
00002c2a 00002e63
00002c2b fffff78c
00002c2c ffffad02
00002c2d fffff31f
00002c2e ffffcb58
00002c2f fffffb37
00002c30 00005b11
00002c31 fffffee1
00002c32 ffffd79a
00002c33 ffffc479
00002c34 ffffdcf8
00002c35 00003954
00002c36 ffffc9b2
00002c37 ffffced3
00002c38 ffffedf7
00002c39 000024c7
00002c3a 00002063
00002c3b 000029ce
00002c3c ffffcc47
00002c3d ffffd29d
00002c3e ffffce67
00002c3f ffffbf84
00003000 ffff931e
00003001 ffff504b
00003002 ffffd900
00003003 ffffbec0
00003004 000002e3
00003005 fffff02f
00003006 000024f6
00003007 00000cc1
00003008 ffffe456
00003009 ffffcecd
0000300a ffffbd59
0000300b fffffc37
0000300c ffffb987
0000300d ffffde18
0000300e ffffe5d8
0000300f 00000fc9
00003010 fffffcb0
00003011 ffffe182
00003012 ffffeb0b
00003013 ffffceaa
00003014 00000c75
00003015 ffffdbee
00003016 00000ebc
00003017 ffffe7d5
00003018 00003623
00003019 000038f3
0000301a 00004214
0000301b fffff996
0000301c 00004ca1
0000301d 000032f0
0000301e ffffe57d
0000301f 00000d8b
00003020 ffffdd54
00003021 00005627
00003022 ffffcda9
00003023 000028cb
00003024 ffffff16
00003025 ffffbcd5
00003026 000003ba
00003027 ffffd3ed
00003028 ffffd43f
00003029 ffffdbf2
0000302a fffff5e4
0000302b ffffc335
0000302c fffff2fd
0000302d 00000ffc
0000302e 0000076f
0000302f 000018af
00003030 00001ade
00003031 fffff004
00003032 000033c1
00003033 ffffd845
00003034 ffffd21a
00003035 00001899
00003036 fffff2a6
00003037 0000130e
00003038 00002a2a
00003039 fffffa8e
0000303a ffffc484
0000303b ffffce9c
0000303c ffffe783
0000303d 00001439
0000303e 0000033d
0000303f 000032a8
00003400 00005a49
00003401 0000b548
00003402 00001cca
00003403 00001f7c
00003404 00001fe4
00003405 fffff2e5
00003406 00002343
00003407 00000df8
00003408 0000071a
00003409 000002e0
0000340a 0000166a
0000340b ffffe8f4
0000340c ffffdb15
0000340d 00000ba5
0000340e 00003bb4
0000340f ffffef47
00003410 00002384
00003411 fffff8bf
00003412 000012c9
00003413 ffffd1e9
00003414 00001153
00003415 ffffdb1a
00003416 00001649
00003417 ffffef4a
00003418 ffffef6f
00003419 ffffe231
0000341a 00001718
0000341b 00001bfe
0000341c ffffe338
0000341d 00001a0c
0000341e 0000039e
0000341f 0000369c
00003420 ffffecb3
00003421 ffffe222
00003422 ffffd5a1
00003423 000019f1
00003424 ffffcde8
00003425 00001d11
00003426 fffff77d
00003427 fffffcb0
00003428 000008dd
00003429 00003dc5
0000342a 00000dea
0000342b 0000218c
0000342c ffffe15f
0000342d fffffaf8
0000342e ffffb58f
0000342f ffffc82a
00003430 00001a90
00003431 000021aa
00003432 00002e7d
00003433 00000a6f
00003434 00000a0f
00003435 fffffda2
00003436 00000473
00003437 ffffe98a
00003438 0000049f
00003439 00002185
0000343a 000022a3
0000343b 000004ef
0000343c ffffa898
0000343d 00002363
0000343e ffffbdd1
0000343f ffffde79
00003800 fffff0e6
00003801 ffffd3c1
00003802 00001483
00003803 00000d2c
00003804 ffffcb88
00003805 ffffef77
00003806 fffff624
00003807 00000010
00003808 00002d98
00003809 00001068
0000380a fffff7aa
0000380b ffffef83
0000380c fffff523
0000380d ffffe278
0000380e 00001fb4
0000380f 0000491a
00003810 00002361
00003811 fffff4c9
00003812 ffffd986
00003813 ffffd105
00003814 ffffc525
00003815 fffffab4
00003816 fffff0c5
00003817 000010a0
00003818 ffffd9ed
00003819 00000a01
0000381a 00002183
0000381b ffffd675
0000381c 00001617
0000381d 00000ad6
0000381e ffffdf64
0000381f ffffe906
00003820 0000251c
00003821 00003035
00003822 ffffe31a
00003823 ffffe3fc
00003824 fffff9a4
00003825 000020dc
00003826 fffff827
00003827 ffffcf3e
00003828 ffffe0d9
00003829 00001e07
0000382a fffffd38
0000382b 00002529
0000382c ffffb458
0000382d fffff6c0
0000382e 000036dd
0000382f ffffdf46
00003830 000005b9
00003831 ffffec34
00003832 00000597
00003833 000025c5
00003834 fffff89c
00003835 ffffe88d
00003836 000018d3
00003837 ffffda3f
00003838 000018de
00003839 00001e4d
0000383a 00000c4a
0000383b 000020b4
0000383c 00000fa3
0000383d ffffc5c3
0000383e ffffd86a
0000383f 00002817
00003c00 ffffabd3
00003c01 ffffabd1
00003c02 00003e6f
00003c03 fffff99f
00003c04 fffffce7
00003c05 00001b41
00003c06 ffffeae1
00003c07 000010ad
00003c08 fffff094
00003c09 000004ec
00003c0a 00003d62
00003c0b ffffd868
00003c0c 0000301e
00003c0d fffff6b7
00003c0e ffffdc02
00003c0f ffffc6a1
00003c10 00001554
00003c11 00000ef0
00003c12 ffffe994
00003c13 ffffd955
00003c14 00001b91
00003c15 ffffe9a8
00003c16 ffffd69a
00003c17 fffff188
00003c18 000039e0
00003c19 ffffdf0c
00003c1a fffff38c
00003c1b 00004820
00003c1c ffffe058
00003c1d fffff719
00003c1e 000031c6
00003c1f ffffcaf5
00003c20 00000ed4
00003c21 00001649
00003c22 000027ba
00003c23 000038e7
00003c24 ffffcba0
00003c25 ffffca1b
00003c26 0000124c
00003c27 ffffda1b
00003c28 000005ff
00003c29 00002385
00003c2a fffff42f
00003c2b ffffdee6
00003c2c ffffcb37
00003c2d 00001c1b
00003c2e ffffc4c4
00003c2f ffffd52e
00003c30 ffffc937
00003c31 00004576
00003c32 fffffa06
00003c33 ffffdaeb
00003c34 00001d1f
00003c35 000038b9
00003c36 000036c0
00003c37 000014df
00003c38 ffffef3e
00003c39 ffffe57e
00003c3a ffffeb07
00003c3b ffffd440
00003c3c 00001bf8
00003c3d 00004d3d
00003c3e 000032f3
00003c3f ffffaf8b
00004000 00006ef9
00004001 000094bb
00004002 000001d1
00004003 ffffd36d
00004004 ffffcdaf
00004005 00001a8b
00004006 00000cf7
00004007 ffffc960
00004008 fffffa6a
00004009 000005e4
0000400a 000023fd
0000400b ffffe7c1
0000400c ffffc8df
0000400d 00001bcd
0000400e 000009ed
0000400f fffff916
00004010 ffffbb06
00004011 00002bb8
00004012 00002991
00004013 000033d7
00004014 fffff4e7
00004015 fffff19f
00004016 00003b5a
00004017 ffffe2f0
00004018 00002fd2
00004019 ffffb1ae
0000401a 00002854
0000401b fffff5f5
0000401c ffffdf38
0000401d 000020d0
0000401e ffffd8f2
0000401f 0000068f
00004020 fffffc63
00004021 ffffd733
00004022 ffffdfcc
00004023 000021de
00004024 00002913
00004025 ffffdbac
00004026 ffffe3cc
00004027 ffffd57a
00004028 00000e76
00004029 00000a59
0000402a ffffce80
0000402b ffffe002
0000402c ffffd685
0000402d ffffdf9f
0000402e 000044bf
0000402f 00000279
00004030 000020c8
00004031 00000c44
00004032 ffffd34e
00004033 000015ee
00004034 000011f5
00004035 fffffc8a
00004036 00000736
00004037 ffffd7c2
00004038 00003842
00004039 ffffe248
0000403a 0000114d
0000403b 00002840
0000403c ffffd2d9
0000403d ffffcba6
0000403e ffffda4f
0000403f 00001c10
00004400 000031c3
00004401 00005591
00004402 00001d01
00004403 00003f0b
00004404 0000131a
00004405 ffffd6a5
00004406 fffff567
00004407 00000078
00004408 00001ec7
00004409 00000811
0000440a 000029c0
0000440b 00002c5b
0000440c 00001b40
0000440d 000004fe
0000440e 000031f7
0000440f 00000732
00004410 000006a3
00004411 ffffc38e
00004412 00003796
00004413 ffffde20
00004414 00002654
00004415 ffffde96
00004416 0000211e
00004417 ffffd06f
00004418 ffffd937
00004419 ffffd929
0000441a 0000056d
0000441b 00000ab5
0000441c 00000b11
0000441d ffffcff9
0000441e ffffe82b
0000441f fffffd76
00004420 00002b2c
00004421 000014cc
00004422 000020ad
00004423 ffffc41b
00004424 00001173
00004425 00001380
00004426 fffff6ae
00004427 fffff631
00004428 00004271
00004429 0000222a
0000442a ffffce8f
0000442b 00002868
0000442c ffffe77c
0000442d 00000906
0000442e 00000338
0000442f ffffcf19
00004430 00002bb2
00004431 ffffe7bd
00004432 00001a0b
00004433 00003155
00004434 00000df6
00004435 00001510
00004436 00002536
00004437 ffffcc8b
00004438 00002d3a
00004439 00003c67
0000443a 0000168d
0000443b fffff36d
0000443c 00001f27
0000443d 00000432
0000443e 00000024
0000443f 00002b00
00004800 00002c12
00004801 00002122
00004802 ffffd84e
00004803 00003667
00004804 000050f2
00004805 ffffed6d
00004806 ffffc6df
00004807 000033ec
00004808 00000864
00004809 00002d10
0000480a 00001b1c
0000480b 000007fe
0000480c 00003045
0000480d 00002283
0000480e ffffd6e2
0000480f ffffeba6
00004810 00001397
00004811 00002fd8
00004812 00002d3c
00004813 ffffd38b
00004814 ffffc81a
00004815 ffffce3c
00004816 00001873
00004817 fffffd4b
00004818 00004424
00004819 00002963
0000481a fffff861
0000481b 000007b1
0000481c 00000459
0000481d 00000d1c
0000481e ffffeaa9
0000481f ffffde32
00004820 00003a08
00004821 0000286a
00004822 00003f32
00004823 00005802
00004824 ffffc65c
00004825 ffffd8f6
00004826 ffffdd2a
00004827 ffffcf12
00004828 00001c4e
00004829 00002873
0000482a ffffcb74
0000482b ffffeadb
0000482c 00002d7c
0000482d 00002fcf
0000482e 00000de3
0000482f ffffd21c
00004830 00004890
00004831 ffffd42e
00004832 00000e86
00004833 00002106
00004834 ffffe7f6
00004835 00002d26
00004836 0000024c
00004837 00001417
00004838 00001370
00004839 ffffd0f2
0000483a ffffbe7d
0000483b 00000898
0000483c 00001a03
0000483d ffffd967
0000483e ffffdd38
0000483f fffff927
00004c00 ffffa3c9
00004c01 ffffa004
00004c02 0000063b
00004c03 00000665
00004c04 ffffc00b
00004c05 00004838
00004c06 fffff4a6
00004c07 ffffb44c
00004c08 00003e9c
00004c09 ffffe328
00004c0a fffffcff
00004c0b 00003b37
00004c0c fffffe49
00004c0d 00000da4
00004c0e 00000d40
00004c0f 00002930
00004c10 fffff0c0
00004c11 00003902
00004c12 ffffd569
00004c13 00001571
00004c14 00001e62
00004c15 00002dfb
00004c16 fffff7d3
00004c17 ffffb949
00004c18 00002e87
00004c19 00001fa8
00004c1a 00001733
00004c1b ffffec6c
00004c1c 00000590
00004c1d 000038be
00004c1e fffff216
00004c1f 00001449
00004c20 000004d9
00004c21 000003f0
00004c22 00000a00
00004c23 ffffd3be
00004c24 00001e62
00004c25 000016ea
00004c26 000033fc
00004c27 00003c43
00004c28 00001298
00004c29 00000d4a
00004c2a 00001dad
00004c2b ffffd048
00004c2c 00001686
00004c2d 0000069c
00004c2e ffffd840
00004c2f ffffeecb
00004c30 000051e6
00004c31 000008f7
00004c32 0000243c
00004c33 fffffe86
00004c34 fffff473
00004c35 ffffd636
00004c36 ffffc881
00004c37 00003ebd
00004c38 000017ed
00004c39 000032ba
00004c3a 0000282e
00004c3b ffffee72
00004c3c ffffcc0f
00004c3d 00002324
00004c3e 00000e21
00004c3f 000015ed
00005000 000020e5
00005001 0000180b
00005002 fffff365
00005003 000000ff
00005004 ffffd710
00005005 000022e2
00005006 ffffe646
00005007 00002f54
00005008 00000238
00005009 fffffd1c
0000500a 0000380e
0000500b ffffddb7
0000500c fffffebb
0000500d fffffe88
0000500e ffffcc17
0000500f 00000f19
00005010 ffffe632
00005011 00003a59
00005012 00001c4f
00005013 ffffe0c5
00005014 fffff1d5
00005015 00002fd6
00005016 fffff852
00005017 ffffcf48
00005018 000001a0
00005019 ffffbef4
0000501a ffffc6e3
0000501b 000012be
0000501c 00003277
0000501d 00000441
0000501e ffffd040
0000501f 0000218b
00005020 ffffca44
00005021 ffffc526
00005022 ffffdc8a
00005023 ffffe408
00005024 00001e4a
00005025 ffffe65e
00005026 0000094c
00005027 ffffd285
00005028 000016ff
00005029 00000a8b
0000502a ffffd0e6
0000502b 00000de8
0000502c ffffe5a1
0000502d ffffd10c
0000502e 000023b8
0000502f 0000194d
00005030 00001e05
00005031 000025a3
00005032 00001a25
00005033 00001e35
00005034 00000c18
00005035 00004bc6
00005036 ffffcfc2
00005037 ffffd9fa
00005038 ffffe49e
00005039 ffffe176
0000503a fffffdbf
0000503b ffffce97
0000503c 00002f81
0000503d ffffc0b6
0000503e ffffdc6a
0000503f 00002913
00005400 ffffbdd4
00005401 ffff9d47
00005402 ffffbf63
00005403 ffffcc75
00005404 0000039e
00005405 00001800
00005406 0000094f
00005407 ffffdcf1
00005408 00001bb2
00005409 ffffcfa1
0000540a 000016a6
0000540b 000042e0
0000540c 00001a8b
0000540d ffffdfe6
0000540e 00002cfa
0000540f 00001be9
00005410 fffff76f
00005411 00000686
00005412 ffffe081
00005413 000031c8
00005414 00000a7e
00005415 000034cd
00005416 ffffcf96
00005417 fffffedf
00005418 ffffd05a
00005419 fffff6c4
0000541a 0000318f
0000541b ffffd517
0000541c ffffc64e
0000541d 00001110
0000541e ffffc54c
0000541f ffffe459
00005420 000044aa
00005421 ffffc948
00005422 00000b59
00005423 00000bec
00005424 00000850
00005425 ffffe584
00005426 ffffd62e
00005427 ffffd938
00005428 00000ad9
00005429 fffff79b
0000542a 000017ff
0000542b fffff362
0000542c 0000014a
0000542d ffffce46
0000542e 00000bd4
0000542f ffffee28
00005430 0000360a
00005431 ffffdd0b
00005432 fffff589
00005433 00003bd6
00005434 0000001c
00005435 0000173e
00005436 00002edc
00005437 00000bd8
00005438 0000125e
00005439 0000100d
0000543a 000012bb
0000543b 00001263
0000543c 000030ee
0000543d ffffd9bb
0000543e 00001f82
0000543f 00003901
00005800 000077f7
00005801 00008c46
00005802 fffffb0d
00005803 000027eb
00005804 00000856
00005805 fffffd34
00005806 00003b40
00005807 ffffd033
00005808 0000395d
00005809 0000242f
0000580a ffffd06e
0000580b ffffd04e
0000580c 00001373
0000580d fffff6d1
0000580e 000017cd
0000580f ffffcbb7
00005810 00002f37
00005811 00002a42
00005812 000008df
00005813 00003d2c
00005814 00001b0c
00005815 000017e3
00005816 00000d10
00005817 000014d1
00005818 ffffc74c
00005819 ffffd070
0000581a 000022dd
0000581b 00002cb2
0000581c 00001bfa
0000581d 000007fc
0000581e 000036f9
0000581f 0000132b
00005820 ffffc210
00005821 ffffd583
00005822 ffffef84
00005823 ffffc575
00005824 fffffabb
00005825 0000361c
00005826 00002617
00005827 00000646
00005828 000025d8
00005829 00002ef8
0000582a 00002c4a
0000582b ffffd89a
0000582c ffffb558
0000582d 00001174
0000582e ffffae83
0000582f 00001c02
00005830 fffff7a2
00005831 ffffc2c1
00005832 ffffeac3
00005833 0000029a
00005834 ffffecae
00005835 0000028c
00005836 ffffb8f2
00005837 fffff117
00005838 ffffc2b1
00005839 fffff16b
0000583a ffffd713
0000583b 00002682
0000583c ffffd098
0000583d fffff2a5
0000583e 00003b49
0000583f fffff28e
00005c00 ffffd83f
00005c01 ffff77be
00005c02 000019a9
00005c03 000016dd
00005c04 00002a29
00005c05 ffffdc3d
00005c06 ffffbf74
00005c07 000063bd
00005c08 0000224d
00005c09 00000d69
00005c0a 000010c5
00005c0b ffffd0c9
00005c0c 00002052
00005c0d 00003958
00005c0e 00001d98
00005c0f ffffe7d4
00005c10 ffffd1b4
00005c11 00001ea0
00005c12 00002032
00005c13 ffffd37b
00005c14 ffffab14
00005c15 0000254c
00005c16 ffffcda4
00005c17 00005692
00005c18 00002207
00005c19 ffffc833
00005c1a 000036d6
00005c1b 000011a9
00005c1c ffffe9a8
00005c1d 000043a5
00005c1e 00001127
00005c1f 00005072
00005c20 ffffea32
00005c21 ffffff04
00005c22 00002efc
00005c23 ffffdcf0
00005c24 ffffce2b
00005c25 00002d8a
00005c26 00000430
00005c27 ffffb37b
00005c28 00002fcd
00005c29 000057c4
00005c2a 0000116d
00005c2b fffff839
00005c2c 000002a2
00005c2d 00000071
00005c2e 00000307
00005c2f 00001897
00005c30 ffffffcf
00005c31 ffffe44a
00005c32 fffff686
00005c33 fffff9f3
00005c34 000028c7
00005c35 0000148d
00005c36 ffffe1f9
00005c37 00000e3c
00005c38 00003496
00005c39 ffffc573
00005c3a 000014ce
00005c3b 00000a0e
00005c3c 00003d24
00005c3d 000019e3
00005c3e 00001ed4
00005c3f ffffc03e
00006000 000050b4
00006001 00005462
00006002 0000182d
00006003 ffffc34e
00006004 fffff5d8
00006005 ffffd063
00006006 ffffea9e
00006007 00001930
00006008 000014c5
00006009 000017c7
0000600a ffffefd0
0000600b 000027a1
0000600c ffffebeb
0000600d ffffd728
0000600e 00002053
0000600f fffff2ec
00006010 00000d64
00006011 ffffe6c6
00006012 fffff51a
00006013 00001ab9
00006014 ffffe327
00006015 ffffd655
00006016 fffffe87
00006017 fffff56f
00006018 ffffc074
00006019 fffff41d
0000601a 0000139a
0000601b ffffecef
0000601c ffffefa9
0000601d fffffc5a
0000601e 00000115
0000601f 00002053
00006020 00000a72
00006021 ffffd332
00006022 ffffe46a
00006023 ffffe2ef
00006024 ffffd7e4
00006025 ffffeb5d
00006026 ffffbf85
00006027 ffffdc9e
00006028 ffffb9f7
00006029 ffffd1a3
0000602a 00003caf
0000602b ffffb7d2
0000602c 000002e7
0000602d ffffc33b
0000602e 00001bdd
0000602f ffffe1c1
00006030 00000465
00006031 ffffce07
00006032 00001fc3
00006033 00002991
00006034 ffffb104
00006035 fffff071
00006036 00002f1f
00006037 00002304
00006038 ffffec93
00006039 0000009b
0000603a fffff257
0000603b fffff84a
0000603c ffffe333
0000603d fffff10e
0000603e fffff9c3
0000603f ffffe603
00006400 0000477d
00006401 00002b96
00006402 00002957
00006403 ffffeec9
00006404 00000854
00006405 fffffb79
00006406 000016c6
00006407 fffffda1
00006408 00001461
00006409 00001a8c
0000640a ffffda41
0000640b 00001d05
0000640c fffffd33
0000640d 0000345b
0000640e 00002e5f
0000640f fffff5d2
00006410 fffffee6
00006411 0000355e
00006412 ffffdedf
00006413 00002e43
00006414 ffffe588
00006415 fffff263
00006416 ffffcf66
00006417 ffffd9d4
00006418 00003d75
00006419 fffff6a0
0000641a fffff78d
0000641b fffff1dd
0000641c 0000229a
0000641d 000013ed
0000641e 00001af7
0000641f ffffd06b
00006420 ffffb3d4
00006421 fffff480
00006422 ffffd0f6
00006423 fffff754
00006424 ffffbee6
00006425 0000130b
00006426 000023ae
00006427 ffffd4db
00006428 ffffd7f8
00006429 00002300
0000642a ffffd7cf
0000642b 0000308b
0000642c fffff018
0000642d ffffd04b
0000642e ffffff78
0000642f 0000221e
00006430 00000796
00006431 fffffa72
00006432 ffffd73e
00006433 ffffd1db
00006434 ffffe843
00006435 ffffd675
00006436 fffff972
00006437 fffff4d8
00006438 fffff4a7
00006439 00000e86
0000643a 0000086a
0000643b 000027b8
0000643c 00000663
0000643d ffffcfc3
0000643e ffffd974
0000643f ffffe4e1
00006800 00001dd1
00006801 00003f51
00006802 ffffdcfa
00006803 ffffb8ea
00006804 0000066e
00006805 fffff42c
00006806 00002d84
00006807 00001a90
00006808 ffffd42d
00006809 ffffc410
0000680a 000051fa
0000680b ffffff5a
0000680c fffffd3b
0000680d ffffffed
0000680e ffffaf37
0000680f 0000260d
00006810 ffffdd58
00006811 00000a52
00006812 fffff819
00006813 0000193e
00006814 00002f58
00006815 fffffc73
00006816 00000e85
00006817 ffffe2d5
00006818 fffffcdd
00006819 00002bac
0000681a fffff00d
0000681b fffff951
0000681c 00002e98
0000681d ffffc93a
0000681e ffffd9b0
0000681f ffffc231
00006820 00002a8f
00006821 00001c41
00006822 00000e72
00006823 ffffc8b8
00006824 00001d55
00006825 0000186e
00006826 00003578
00006827 ffffcb76
00006828 00002d43
00006829 00001508
0000682a 00002a52
0000682b fffff8ac
0000682c 00003e75
0000682d 0000405f
0000682e 00003c23
0000682f fffff188
00006830 ffffce83
00006831 fffff862
00006832 ffffcc99
00006833 ffffe946
00006834 ffffc37b
00006835 ffffd072
00006836 fffffe33
00006837 00000131
00006838 0000122e
00006839 ffffd594
0000683a 00000b98
0000683b ffffb44b
0000683c 00000545
0000683d 00002673
0000683e ffffead1
0000683f 00002fbe
00006c00 ffffdc2b
00006c01 ffffbde9
00006c02 000034b5
00006c03 000010be
00006c04 ffffc95a
00006c05 0000354d
00006c06 ffffe8d7
00006c07 00002eaf
00006c08 00000ce4
00006c09 0000204a
00006c0a 00003fa5
00006c0b ffffe078
00006c0c ffffa7fa
00006c0d 0000306f
00006c0e ffffc232
00006c0f fffff0f4
00006c10 ffffed50
00006c11 000028b4
00006c12 ffffd150
00006c13 000003ff
00006c14 ffffd82e
00006c15 000016d1
00006c16 ffffc294
00006c17 000007bd
00006c18 00004157
00006c19 ffffe8ae
00006c1a 00003876
00006c1b ffffd419
00006c1c ffffe3e9
00006c1d 0000181d
00006c1e ffffc260
00006c1f 000019ae
00006c20 fffff15b
00006c21 ffffda33
00006c22 fffffa72
00006c23 00003f0e
00006c24 ffffeb38
00006c25 ffffaad3
00006c26 ffffda20
00006c27 ffffdb8d
00006c28 ffffee7b
00006c29 000006f7
00006c2a ffffe4d7
00006c2b ffffcc81
00006c2c fffffaa5
00006c2d 0000182d
00006c2e 000027c9
00006c2f fffff16b
00006c30 ffffff3a
00006c31 00002f2f
00006c32 0000260d
00006c33 00006271
00006c34 ffffc8ba
00006c35 ffffbe6b
00006c36 00000bff
00006c37 00002118
00006c38 ffffd74a
00006c39 0000158e
00006c3a ffffbe12
00006c3b ffffde1a
00006c3c 000037dd
00006c3d ffffe31e
00006c3e fffff151
00006c3f ffffd56e
00007000 ffffec8b
00007001 ffff7893
00007002 000010ff
00007003 ffffdc06
00007004 00000a6e
00007005 00004a37
00007006 00001e38
00007007 ffffbe4e
00007008 ffffbcb9
00007009 000033cb
0000700a ffffead3
0000700b ffffe616
0000700c 0000246b
0000700d 00001dc3
0000700e ffffb867
0000700f 00004764
00007010 00002eaa
00007011 00001a43
00007012 ffffeabf
00007013 00001dc0
00007014 fffffc8a
00007015 000017be
00007016 0000099a
00007017 ffffdce4
00007018 00003172
00007019 fffffa1e
0000701a 000033d6
0000701b ffffdfb9
0000701c 000019ac
0000701d fffffae0
0000701e 00003116
0000701f ffffdefb
00007020 ffffcf03
00007021 ffffd20e
00007022 ffffce59
00007023 ffffe2e9
00007024 00001804
00007025 00001994
00007026 0000397a
00007027 00000807
00007028 000010a7
00007029 000006c6
0000702a ffffe9e8
0000702b 00002fbd
0000702c fffff4db
0000702d ffffe2fb
0000702e 00001421
0000702f ffffecc3
00007030 00001f94
00007031 fffff5fa
00007032 0000039a
00007033 00002066
00007034 fffff256
00007035 ffffb001
00007036 00002cfe
00007037 ffffeda9
00007038 00000f22
00007039 00000afb
0000703a 000021e6
0000703b ffffe0d7
0000703c ffffcbb5
0000703d ffffd8e1
0000703e 0000187e
0000703f 00002eaf
00007400 ffffc8a1
00007401 ffffe086
00007402 fffff5d5
00007403 ffffe0dd
00007404 ffffbb66
00007405 fffff1e3
00007406 ffffe881
00007407 fffffc60
00007408 00000e2f
00007409 00003393
0000740a 00004d2c
0000740b ffffda69
0000740c 00001e1f
0000740d fffffd78
0000740e 0000099f
0000740f fffff56b
00007410 ffffdb43
00007411 000018f8
00007412 ffffb8f8
00007413 ffffda06
00007414 fffff1cb
00007415 000028fc
00007416 ffffdc3a
00007417 000012f4
00007418 ffffc65d
00007419 00000c31
0000741a 00005ff1
0000741b fffff2e7
0000741c ffffcfcc
0000741d 00002d88
0000741e ffffbf7e
0000741f 000024a7
00007420 ffffe22c
00007421 ffffcdf7
00007422 ffffe97a
00007423 fffff0de
00007424 fffff612
00007425 ffffeaa2
00007426 ffffeef6
00007427 00001ab1
00007428 00003666
00007429 00004561
0000742a ffffda7b
0000742b ffffc79e
0000742c ffffe5f9
0000742d 00000123
0000742e 0000373e
0000742f fffff52d
00007430 ffffcdfb
00007431 fffff0dd
00007432 000046da
00007433 0000030b
00007434 000033f6
00007435 ffffefb7
00007436 000006e1
00007437 fffff3b5
00007438 fffff9ec
00007439 ffffc36f
0000743a ffffd762
0000743b 00000ba2
0000743c fffff837
0000743d fffff534
0000743e fffff1de
0000743f 0000042f
00007800 ffffa405
00007801 ffff98fd
00007802 fffffef5
00007803 00000e4e
00007804 ffffe63c
00007805 00002b15
00007806 00001d68
00007807 000016e4
00007808 ffffe865
00007809 00000cbe
0000780a ffffef09
0000780b ffffea33
0000780c ffffc285
0000780d 000041ef
0000780e ffffe59d
0000780f fffffc80
00007810 ffffca3a
00007811 fffffc74
00007812 000036ff
00007813 00000c01
00007814 ffffd948
00007815 ffffd4f6
00007816 000021bc
00007817 ffffc702
00007818 00003272
00007819 000007df
0000781a 00000114
0000781b ffffede5
0000781c 00002588
0000781d ffffe037
0000781e 00003e0f
0000781f ffffd770
00007820 ffffc730
00007821 ffffef89
00007822 ffffe65c
00007823 0000041d
00007824 00000a0e
00007825 0000145e
00007826 00002b6e
00007827 00003ac5
00007828 ffffd13e
00007829 00002a3a
0000782a ffffe0f2
0000782b 000020f7
0000782c ffffe071
0000782d fffffcd0
0000782e 000019b1
0000782f fffff41a
00007830 fffff83e
00007831 ffffc1df
00007832 ffffc851
00007833 00001ae3
00007834 ffffdb05
00007835 000011df
00007836 fffff0a0
00007837 fffff208
00007838 ffffd1ba
00007839 fffff23f
0000783a ffffd015
0000783b ffffe9d3
0000783c 00002069
0000783d 00003428
0000783e fffff06b
0000783f 00002764
00007c00 00001f93
00007c01 00007824
00007c02 00004e59
00007c03 ffffae2b
00007c04 ffffcc21
00007c05 fffff5b9
00007c06 00002a3a
00007c07 00000195
00007c08 ffffe8c9
00007c09 000021d4
00007c0a 00004d8e
00007c0b 00001f44
00007c0c 00000dff
00007c0d ffffef65
00007c0e fffffb9a
00007c0f ffffe867
00007c10 ffffdb8a
00007c11 ffffd9c4
00007c12 00001346
00007c13 ffffe23a
00007c14 000019e7
00007c15 ffffdb56
00007c16 ffffcb65
00007c17 00001edd
00007c18 00000a21
00007c19 00002196
00007c1a 000024ce
00007c1b fffff46f
00007c1c 0000312d
00007c1d 00002f67
00007c1e 00000b6c
00007c1f 00000610
00007c20 ffffd833
00007c21 00000b58
00007c22 fffffa4f
00007c23 ffffb00d
00007c24 00001fb9
00007c25 00002f60
00007c26 00001e59
00007c27 00001af5
00007c28 ffffd711
00007c29 000013b8
00007c2a 00001c6f
00007c2b ffffddf6
00007c2c ffffe188
00007c2d 000013ae
00007c2e 00002ac1
00007c2f ffffdeaf
00007c30 fffffead
00007c31 ffffd47a
00007c32 ffffd654
00007c33 0000026a
00007c34 fffff110
00007c35 ffffbf58
00007c36 00002d52
00007c37 00001a7d
00007c38 00001739
00007c39 00000a56
00007c3a 00003b51
00007c3b 00003c3e
00007c3c 00001acf
00007c3d ffffc695
00007c3e 00003d0b
00007c3f ffffb753
00800000 fffff0af
00800400 fffffa8a
00800800 00000072
00800c00 ffffec72
00801000 00000abf
00801400 fffff5e6
00801800 000017f4
00801c00 000008cd
00802000 000020cd
00802400 00006556
00802800 00004dfa
00802c00 ffffe488
00803000 000041da
00803400 00001ad5
00803800 ffffe1f3
00803c00 00001780
00804000 000011e6
00804400 fffff561
00804800 ffffeaff
00804c00 000000b8
00805000 ffffe129
00805400 00000d23
00805800 00001eb5
00805c00 000033be
00806000 00000f77
00806400 fffffd62
00806800 0000026b
00806c00 00000b01
00807000 00001256
00807400 fffffdcb
00807800 000016b0
00807c00 00000243
01000000 000014ea
01000001 00004af7
01000002 ffffd643
01000003 fffff8fd
01000004 ffffd783
01000005 000033fe
01000006 00005659
01000007 ffffcf1a
01000008 ffffba7f
01000009 ffffc61b
0100000a ffffc20f
0100000b ffffb495
0100000c ffffc549
0100000d 000055d0
0100000e fffff6f3
0100000f ffffda42
01000010 00006da9
01000011 00003ee9
01000012 00004153
01000013 ffffe1e7
01000014 00003ddb
01000015 ffffa433
01000016 00005f32
01000017 ffffcac2
01000018 000045cd
01000019 00005cbc
0100001a 00002d74
0100001b ffffd523
0100001c ffffa4c6
0100001d ffffc3e1
0100001e ffffc134
0100001f 00005411
01800000 fffff491
